, 122780
. 117897
là 56227
tôi 50320
một 46970
có 46466
và 45638
những 36024
chúng 35978
của 35255
không 29639
ta 29160
bạn 25848
đó 25756
người 25516
trong 23679
thể 23342
này 22317
đã 22023
các 21497
được 21190
với 19695
&quot; 19108
cho 18812
Và 18347
sự 18138
ra 18119
làm 17263
ở 16323
nó 16190
mà 15412
để 15394
về 15268
sẽ 15073
như 14953
điều 13722
thế 13558
Tôi 12362
khi 12278
nói 12111
họ 11973
đến 11332
? 11160
phải 11033
rằng 10465
vào 10457
gì 10418
đang 10414
việc 10308
từ 10193
lại 10015
thấy 9928
rất 9826
cách 9645
hơn 9521
nhiều 9399
thực 8876
đầu 8875
cả 8820
đây 8710
học 8462
khác 8401
con 8378
công 8188
trên 8167
Chúng 8075
cái 8028
vì 7976
biết 7920
nào 7912
chỉ 7891
-- 7539
năm 7444
thứ 7331
nghĩ 7280
đi 7191
thành 7082
: 7057
cũng 6770
nhà 6533
số 6511
bị 6431
muốn 6389
quan 6362
mình 6057
nhưng 6057
nhất 6035
1 5966
tạo 5962
động 5876
chính 5848
giới 5813
nên 5793
vậy 5753
Nhưng 5479
hình 5383
giờ 5348
hiện 5292
sống 5214
tại 5189
mọi 5163
nhận 5134
nếu 5133
ông 5071
ấy 5053
cần 5001
hay 4971
cuộc 4959
thì 4924
đề 4784
tất 4759
tự 4755
anh 4735
bởi 4669
tới 4648
theo 4645
bắt 4642
ý 4621
còn 4594
nhìn 4546
lớn 4535
cùng 4488
bằng 4476
cảm 4435
thật 4433
tin 4431
sau 4412
tế 4396
dụng 4391
câu 4382
lên 4341
bản 4335
sao 4287
thời 4262
trở 4234
chuyện 4211
ngày 4207
sinh 4180
cơ 4179
bộ 4176
qua 4172
b@@ 4158
nhân 4155
nước 4035
trước 4025
năng 4019
phát 3997
đổi 3976
phần 3941
toàn 3919
thông 3865
gia 3860
nơi 3855
Nó 3837
l@@ 3832
thay 3818
tìm 3816
nhau 3809
mới 3796
Đây 3764
định 3755
vấn 3736
trường 3702
nhiên 3697
tính 3639
sử 3605
trình 3604
hệ 3591
tốt 3591
tưởng 3586
kết 3569
vật 3508
hàng 3486
lý 3475
hỏi 3471
ảnh 3466
Bạn 3437
máy 3375
ai 3372
Đó 3371
v@@ 3352
hợp 3289
c@@ 3277
mặt 3234
nữa 3216
tiếp 3213
hành 3200
gian 3166
rồi 3143
kinh 3141
m@@ 3136
xem 3134
thức 3132
thiết 3122
liệu 3114
thích 3114
hội 3099
hoá 3064
trọng 3050
vị 3039
s@@ 3034
d@@ 3020
cô 3001
giải 2987
đồng 2976
n@@ 2959
hai 2957
trẻ 2942
lượng 2891
vài 2891
h@@ 2890
đều 2875
thường 2861
Một 2859
do 2844
bất 2843
r@@ 2840
S@@ 2837
tiên 2836
t@@ 2826
đối 2780
nay 2769
Vì 2763
hiểu 2761
loại 2759
sáng 2755
giống 2749
quá 2739
lần 2735
tâm 2731
bao 2700
g@@ 2686
T@@ 2682
cứu 2673
thống 2659
bệnh 2632
viên 2629
Có 2609
Vậy 2595
a 2592
gọi 2578
nghĩa 2573
điểm 2571
nghệ 2562
nhỏ 2533
M@@ 2503
hoàn 2481
ch@@ 2473
tương 2469
đưa 2469
ăn 2465
độ 2462
nghiệm 2436
đường 2428
Họ 2425
quả 2424
tác 2420
B@@ 2415
xảy 2366
vẫn 2363
C@@ 2355
dùng 2326
chiếc 2325
x@@ 2311
thuật 2309
Điều 2302
hoặc 2300
đại 2299
biệt 2297
bên 2287
từng 2270
lúc 2265
dân 2248
chuyển 2246
nh@@ 2246
diễn 2244
đ@@ 2232
triển 2231
Những 2226
quyết 2216
cao 2207
nghe 2198
tuyệt 2187
ơn 2187
trị 2186
ng@@ 2183
khoảng 2175
Nếu 2156
mỗi 2144
chất 2133
2 2131
kế 2126
cầu 2122
phụ 2097
lời 2088
lực 2088
cố 2057
đất 2054
giáo 2051
em 2047
trung 2030
hết 2008
bảo 2007
giúp 2005
giá 1999
H@@ 1998
phòng 1990
tiến 1990
nữ 1988
xuất 1985
chưa 1982
nghiên 1975
tr@@ 1957
liên 1956
Anh 1955
xe 1955
đơn 1946
A@@ 1936
Đ@@ 1935
tình 1930
mang 1929
đúng 1925
phân 1923
th@@ 1923
tranh 1923
tập 1918
não 1917
truyền 1909
tuổi 1906
phương 1903
điện 1896
i@@ 1891
tượng 1887
đặt 1886
bình 1882
Khi 1874
tiếng 1861
tay 1860
tiền 1859
bài 1858
biến 1855
i 1855
sản 1853
trả 1841
giữa 1838
hãy 1821
yêu 1821
ít 1821
khả 1813
ngay 1812
khoa 1810
an 1806
Không 1801
y 1795
thú 1791
o@@ 1782
lấy 1775
e@@ 1772
L@@ 1767
hoạt 1754
e 1752
gần 1751
k@@ 1748
bỏ 1728
chiến 1722
cá 1721
sách 1719
- 1718
đáng 1710
Các 1708
xã 1701
phẩm 1699
dụ 1692
khó 1692
cuối 1691
chơi 1688
âm 1687
pháp 1686
D@@ 1685
dự 1678
hiệu 1678
Trong 1677
thân 1676
cứ 1672
chủ 1661
mất 1655
án 1650
kể 1648
đời 1646
sức 1643
o 1639
Mỹ 1635
y@@ 1626
minh 1622
-@@ 1617
đồ 1603
t 1596
bé 1593
mạnh 1593
ngoài 1592
bức 1589
đấy 1589
3 1588
nghiệp 1587
K@@ 1585
lập 1584
loài 1575
a@@ 1574
chí 1573
dẫn 1569
kỳ 1569
tinh 1569
tài 1568
luôn 1567
ph@@ 1547
m 1542
xây 1542
tên 1539
dựng 1534
tiêu 1526
mô 1520
văn 1520
trí 1519
G@@ 1509
chứng 1509
hướng 1501
thu 1499
tử 1496
vô 1494
cộng 1490
ứng 1484
thử 1478
nhạc 1471
viết 1469
giả 1460
Hãy 1458
vi 1457
vời 1456
phố 1454
nguyên 1448
đâu 1448
giản 1447
ba 1445
N@@ 1441
V@@ 1438
kiến 1438
quốc 1435
chức 1433
chọn 1431
bào 1423
s 1423
đặc 1423
chế 1415
triệu 1409
chết 1398
di 1396
Ch@@ 1395
cấp 1394
đứa 1394
mạng 1392
quyền 1388
tư 1384
P@@ 1382
suy 1378
tăng 1378
khí 1373
bà 1369
lẽ 1367
đạo 1364
nền 1360
thần 1351
an@@ 1347
màu 1347
khỏi 1346
phá 1345
p@@ 1339
sĩ 1335
tháng 1333
Thế 1332
thị 1327
đánh 1322
gặp 1319
khu 1309
dưới 1304
mẹ 1304
xuống 1299
chút 1294
khá 1293
vụ 1292
gắng 1288
Bây 1269
E@@ 1268
phép 1267
quanh 1266
dữ 1262
xác 1261
nhóm 1258
chia 1257
khiến 1252
vực 1250
dịch 1249
mở 1248
or@@ 1247
thêm 1247
% 1245
bay 1238
er@@ 1238
thuyết 1233
quay 1229
mức 1228
u@@ 1228
tham 1227
trò 1227
nhanh 1217
w@@ 1214
dạng 1208
n 1205
gây 1202
rõ 1201
u 1199
cực 1195
tổ 1193
đàn 1191
vùng 1190
ánh 1190
cụ 1186
vọng 1186
bây 1182
Th@@ 1180
cảnh 1175
báo 1174
R@@ 1169
nguồn 1168
tục 1168
in@@ 1165
dễ 1160
càng 1159
chắc 1158
giác 1157
đẹp 1157
dù 1153
sát 1152
ví 1151
trang 1149
hôm 1146
phía 1146
en@@ 1144
xa 1144
10 1136
đủ 1133
đoạn 1132
cây 1131
ar@@ 1128
biểu 1127
phim 1127
nhớ 1124
vũ 1119
Ông 1117
hưởng 1116
duy 1110
f@@ 1110
chẳng 1106
Quốc 1103
kiểm 1097
... 1096
trái 1093
vòng 1088
thương 1083
5 1081
dài 1081
ty 1080
Trung 1079
ngữ 1071
phản 1067
luận 1066
in 1064
kì 1053
đôi 1052
kia 1043
dục 1039
giảm 1038
vừa 1032
4 1029
thậm 1027
đầy 1022
chú 1021
lợi 1021
so 1018
tích 1016
chân 1014
kiếm 1013
thuốc 1007
trăm 1006
F@@ 1005
thôi 1004
thư 998
Người 995
đình 993
lai 991
Tại 990
li@@ 988
bước 986
giao 980
hạn 979
; 975
toán 975
diện 973
sâu 972
Bởi 970
môi 964
giữ 957
tồn 957
trải 956
ẩn 950
thanh 949
ti@@ 948
nối 946
phục 946
d 945
trời 944
dành 941
đoán 941
dạy 939
thuộc 939
sai 937
I@@ 934
địa 934
tạp 933
riêng 930
rộng 928
vẻ 927
phủ 925
đứng 923
on 922
al@@ 920
sợ 920
nổi 919
thí 919
chi 918
lòng 918
vệ 915
đạt 914
mắt 911
mục 911
thúc 911
mẫu 909
kh@@ 906
Cảm 905
căn 905
luật 904
tối 904
xung 904
kỹ 899
z@@ 899
ô 899
lệ 898
đọc 898
lịch 893
bàn 884
20 881
! 880
đô 879
sẻ 878
lớp 875
trông 875
gi@@ 874
trụ 874
W@@ 869
chạy 868
en 863
yếu 860
kỷ 859
ích 859
gái 856
chương 855
cuốn 854
quy 853
ngồi 852
tiết 852
phút 851
bố 850
khắp 850
vui 848
cậu 846
khoẻ 845
mối 839
hầu 833
chắn 828
re@@ 828
p 827
suốt 826
trợ 826
&apos; 821
J@@ 821
kiện 820
buổi 819
mua 819
on@@ 818
biển 814
ngôn 812
Tất 811
qu@@ 811
to 811
Vâng 810
trúc 809
O@@ 805
la 805
Phi 804
chung 802
kiểu 802
sắc 801
cửa 797
doanh 795
vận 789
sư 787
xúc 786
áp 786
cánh 783
tuần 782
ngạc 781
lâu 780
khám 779
sở 778
hồi 775
Tr@@ 773
xét 772
tỉ 771
.@@ 769
bán 769
ràng 767
hiểm 762
ước 759
6 757
cấu 757
thoại 757
phức 752
Ở 752
chụp 748
nhiệm 748
Sau 746
thiên 743
nằm 742
nhập 740
kích 738
bóng 733
ngôi 733
ri@@ 733
ung 733
da 731
chuyên 728
băng 726
cung 724
phí 723
thái 723
tra 716
cạnh 714
ngành 714
chỗ 712
chứ 712
hữu 712
hạnh 711
độc 711
Gi@@ 708
viện 705
hoà 703
kẻ 702
Xin 699
el@@ 698
vẽ 697
đa 696
Thật 693
ng 692
khủng 690
thập 686
Nên 684
30 683
ghi 683
trưởng 683
bác 682
chuẩn 681
quý 680
phúc 679
50 678
Cô 678
hề 676
xin 676
chịu 675
l 675
Sự 672
tấm 670
Cái 668
thiếu 668
c 667
Thực 666
nhiêu 666
sẵn 666
Ph@@ 665
tức 665
tệ 663
hơi 661
lắng 661
khăn 657
phạm 657
xanh 657
Giờ 656
sắp 655
tái 655
hoạ 654
lo 650
3@@ 647
niệm 647
chống 644
trai 644
đau 643
lạc 642
thất 642
Như 641
châu 639
ho@@ 639
dựa 637
at@@ 636
lạ 636
dung 634
la@@ 632
mặc 631
mong 630
bánh 629
lo@@ 628
đóng 627
ou@@ 626
cải 623
xử 621
tổng 620
nh 619
er 613
ban 612
lựa 612
khắc 610
trực 610
Ý 610
đội 609
mật 608
nội 608
es 607
gửi 604
Để 604
Làm 603
st@@ 602
vượt 602
hậu 601
il@@ 601
8 600
hạt 600
chăm 599
tỷ 599
it@@ 598
ống 598
toà 597
7 594
hứng 594
tầm 594
xấu 594
hộ 592
ác 592
Qu@@ 589
nguy 589
thiện 588
à 588
Ấn 588
lưu 586
TED 585
trạng 583
1@@ 582
đột 580
chiều 576
dần 576
danh 574
dầu 574
óc 574
áng 573
h 572
lãnh 572
nhiệt 572
ảo 569
ngoại 568
cha 565
tim 565
niềm 562
dấu 561
sang 559
tội 559
Độ 557
Châu 556
nghèo 554
đấu 553
cận 552
nạn 552
ả 550
chữa 549
kính 548
ay 547
cổ 547
đen 546
U@@ 544
áo 544
đẩy 544
4@@ 542
kéo 542
ong 540
thách 540
khách 539
may 539
thủ 539
ngược 538
nuôi 535
New 534
tắc 534
tố 531
nỗi 530
X@@ 528
om@@ 528
k 527
bại 526
ra@@ 525
giấy 524
hy 524
Tây 523
lỗi 521
chữ 520
100 519
lĩnh 516
tiện 516
nhiễm 515
nửa 515
quản 515
ổ 515
ngủ 513
lí 512
phi 512
hoạch 510
khiển 509
r 509
9 507
tốc 507
hát 506
cắt 504
mắc 503
soát 503
dương 502
tả 502
Mọi 500
Do 499
Con 498
gồm 498
mơ 497
dây 496
hại 496
os@@ 496
sóc 495
quen 494
ồng 494
giết 493
khối 492
nghi 492
Chỉ 491
cử 491
đông 491
5@@ 490
thẳng 489
đích 489
lái 488
chiếu 487
đức 487
bày 485
bầu 483
lưới 482
đá 482
le 481
quân 481
thi 481
khai 480
thấp 480
cười 479
xếp 479
dàng 477
bốn 476
j@@ 476
phóng 476
ac@@ 475
nhờ 474
ngắn 473
rối 473
sàng 473
ạ 473
ngờ 472
đêm 472
chấp 471
dòng 471
gấp 471
gốc 471
as@@ 470
cư 470
lắm 470
đổ 468
Kh@@ 466
mê 466
tàu 466
/ 465
niên 465
giây 464
đem 462
kỉ 461
phong 460
Rồi 459
ca 459
đỡ 459
tu@@ 458
tận 458
cáo 457
hồ 457
ân 457
ôi 456
Với 455
am@@ 455
nông 455
Nh@@ 453
sân 453
trách 452
vai 452
cân 451
á 451
bạo 450
ngàn 449
gắn 445
nhảy 444
xuyên 443
le@@ 442
lu@@ 442
phẫu 442
siêu 442
tôn 442
hoa 441
A 440
ài 440
chuyến 439
ký 439
chị 437
dừng 437
chim 436
hài 436
thụ 436
bí 435
đợi 435
ol@@ 433
kĩ 432
ật 432
ốc 432
gen 431
ấn 430
nghị 429
Y@@ 428
mã 428
màn 424
giai 423
ấm 423
di@@ 422
ương 422
15 421
lao 421
tầng 421
ot@@ 420
đảm 420
tải 419
son 417
al 416
khởi 416
ro@@ 416
ổn 416
video 415
nhắc 414
phổ 414
19@@ 411
ăng 411
đo 411
ối 411
ang 409
góc 409
hấp 409
tù 409
chỉnh 408
hút 406
thải 405
Còn 404
gh@@ 403
hộp 403
Ví 402
ngăn 402
Được 402
Nam 401
ơ 401
chuột 400
nam 400
rừng 398
môn 397
nghiêm 397
khuôn 395
lá 395
ồn 395
Internet 394
luyện 394
tín 394
op@@ 393
giàu 392
khái 392
Âu 392
món 390
Tuy 388
ic@@ 388
thắng 386
ức 386
già 385
kho@@ 385
ạt 385
chứa 384
tấn 384
Hoa 383
phận 382
Câu 381
coi 381
cập 381
ngân 381
es@@ 380
đỏ 380
huỷ 379
hẳn 379
đám 379
12 378
thơ 378
ội 378
liệt 377
York 376
tuyến 376
ào 376
mấy 375
x 375
êu 375
đảo 374
nặng 373
tai 373
Cho 372
mạch 372
ôn 371
Hiện 370
trừ 370
ủng 370
Chúa 369
trao 369
trùng 369
ô@@ 369
sóng 368
Bắc 367
Ng@@ 367
ch 367
cháu 367
dậy 367
phù 367
vân 367
mùa 366
uống 366
lan 365
quyển 365
ám 365
ền 365
40 364
chóng 364
buộc 363
át 363
điển 363
Trái 362
ap@@ 362
máu 362
mềm 362
8@@ 361
thiệu 361
àng 361
g 360
nóng 360
w 360
.000 359
dõi 359
dưỡng 359
Kỳ 358
thảo 358
chủng 357
cũ 357
hạ 357
khán 357
mẽ 356
sơ 356
Ta 355
rời 355
điên 355
Từ 354
tồi 354
ưa 354
hãi 353
lầm 352
Công 351
linh 351
loạn 350
Liệu 349
Thứ 349
7@@ 348
lộ 348
sửa 348
tảng 348
ách 348
ốt 348
Ai 347
Vào 347
mắn 347
vững 347
đáp 347
chờ 346
robot 345
buồn 344
hi 344
thưởng 344
tránh 344
Mỗi 343
Rất 342
tường 342
6@@ 341
chàng 341
mi@@ 341
đèn 341
ly 340
miễn 340
bảng 339
Nhà 338
as 338
góp 337
khổng 337
mái 337
80 336
khoản 336
lồ 336
lạnh 334
ưu 334
xu 333
tổn 332
uy@@ 332
ine 331
Ngày 330
lẫn 330
vi@@ 329
tờ 328
rút 327
đào 327
ơi 327
mảnh 326
ê 326
đói 326
diệu 325
hảo 325
trắng 325
é 325
đỉnh 325
2@@ 324
tốn 324
web 324
àn 323
phỏng 322
quảng 322
tộc 322
giỏi 321
núi 321
cơn 320
quên 320
trận 320
Đúng 320
giọng 319
tiểu 319
Đông 319
Bà 318
ni@@ 318
ur@@ 318
êm 317
hi@@ 316
im 316
rơi 316
ad@@ 314
kim 314
nhu 314
ing 313
đương 312
Chính 311
khuẩn 311
trì 311
trồng 311
au@@ 310
bang 310
bề 310
nghìn 310
chấm 309
cầm 309
to@@ 309
du 308
bật 307
bền 307
sánh 307
chạm 306
mời 305
z 305
ần 305
lương 304
phấn 304
and@@ 303
mãi 303
tiềm 303
C 302
Năm 302
hiển 302
xương 301
ma 300
nghỉ 300
ồi 300
khoá 299
ma@@ 299
ùng 299
bu@@ 298
cỡ 298
Đại 298
0@@ 297
Hồi 297
ab@@ 297
bữa 297
khích 297
vàng 297
vĩ 297
hôn 296
Ho@@ 295
khẩu 295
lửa 295
nắm 295
Si@@ 294
làng 294
&#91; 293
9@@ 293
Ma@@ 293
chiếm 293
hoảng 293
quần 293
hỗ 292
tách 292
vốn 292
âu 292
ea@@ 291
is 291
ne@@ 291
ngừng 291
đừng 291
ế 291
&#93; 290
ag@@ 290
ghế 290
hào 290
phối 290
điệu 290
chảy 289
sót 289
thịt 289
vợ 289
ột 289
Trước 288
biên 288
dường 288
vỡ 288
Le@@ 287
Trên 287
gió 287
nổ 287
sớm 287
ớ 287
ục 287
tô 286
ét 286
ư 286
ến 286
25 285
Vấn 285
chuỗi 285
ái 285
ọc 285
Ồ 284
ru@@ 283
su@@ 283
đằng 283
Al@@ 282
si@@ 282
ầm 282
sạch 281
ạo 281
ốn 281
60 280
kịch 280
thoát 280
ành 280
000 279
chồng 279
tắt 279
ị 279
Z@@ 277
nghề 277
suất 277
am 276
chậm 276
loạt 276
can 275
ha@@ 275
ạn 275
dĩ 274
lối 274
trại 274
ải 274
bè 273
gợi 273
nhé 273
phê 273
Cách 272
khứ 272
lỗ 272
ường 272
khổ 271
tan 271
ta@@ 270
ờ 270
trưng 269
tàn 269
Google 268
kê 268
trữ 268
70 267
giấc 267
quỹ 267
tán 266
ép 265
Nói 264
iệt 264
ỉ 264
Cám 263
lặp 263
túi 263
ì 263
viễn 260
Đầu 260
đăng 260
chó 259
dặm 259
kiệm 259
Hay 258
bơi 258
cờ 258
Việc 257
ki@@ 257
quang 257
đuổi 256
ắn 256
ngh@@ 255
nguyện 255
ngại 255
ề 255
ir@@ 254
sỹ 254
ầy 254
Ngh@@ 253
nâng 253
de 252
thăm 252
thước 252
cà 251
phiên 251
sốt 251
í 251
20@@ 250
kháng 250
sông 250
Lu@@ 249
Mar@@ 249
khoảnh 249
nhật 249
vết 249
ỷ 249
ko 248
kém 248
nhắn 247
us 247
thở 246
ghép 245
ắt 245
11 244
bọn 244
ce 243
chu@@ 243
lọc 243
nỗ 243
Nhật 242
el 242
rẻ 242
ất 242
sáu 241
tàng 241
vỏ 241
hu@@ 240
lặng 240
thoả 240
un@@ 240
Là 239
ạch 239
hùng 238
man 238
ton 238
ú 238
ạp 238
ẻ 238
ỡ 238
and 237
mùi 237
nhẹ 237
thảm 237
tròn 237
voi 237
An@@ 236
bờ 236
hoang 236
trống 236
Đất 236
điệp 236
de@@ 235
G 233
bò 233
hổ 233
us@@ 232
Lúc 231
st 231
ĩ 231
Bản 230
Bộ 230
Mi@@ 230
chi@@ 230
ồ 230
Cuối 229
ec@@ 229
lục 229
ặt 229
200 228
Hai 228
it 228
ượng 228
Ngay 227
Su@@ 227
doạ 227
thác 227
xoay 227
đam 227
đựng 227
Ar@@ 226
cấy 226
ngẫu 226
rác 226
HIV 225
mu@@ 225
sh@@ 225
thuỷ 225
đoàn 225
ập 225
thuận 224
ướng 224
Nào 223
chặt 223
trích 223
đẳng 223
ia 222
lính 222
St@@ 221
Theo 221
b 221
họp 221
lành 221
thai 221
thừa 221
đạp 221
Cuộc 220
miếng 220
ã 220
Đức 220
90 219
chào 219
nhựa 219
giảng 218
iên 218
thang 218
ẽ 218
M 217
lãng 217
lược 217
ngoái 217
18 216
Co@@ 216
S 216
thi@@ 216
ìa 216
Hoặc 215
mù 215
Mà 214
cãi 214
ke 214
lắp 214
thận 214
Đừng 214
đe 214
Cũng 213
giám 213
tri 213
ưng 213
Cậu 212
huống 212
ngang 212
tật 212
đòi 212
chặn 211
lễ 211
me@@ 211
mừng 211
than 211
thao 211
éo 211
ời 211
is@@ 210
ộn 210
Nhiều 209
nhuận 209
sổ 209
Thay 208
khấu 208
êng 208
úng 208
sợi 207
yên 207
đùa 207
ck 206
mét 206
tho@@ 206
đống 206
$ 205
,000 205
mây 205
ore 205
ặc 205
cát 204
diệt 204
mại 204
mập 204
én 204
Đối 204
10@@ 203
500 203
Chẳng 203
D 203
chép 203
cu@@ 203
hương 203
phiếu 203
vong 203
ới 203
bi 202
cản 202
cứng 202
vú 202
bắn 201
mực 201
nhịp 201
tuyên 200
Mẹ 199
cám 199
cặp 199
hiếm 199
nhằm 199
tiêm 199
ộng 199
bối 198
chán 198
súng 198
thù 198
tỏ 198
ò 198
đua 198
ấp 198
ừng 198
Về 197
bom 197
tràn 197
ạc 197
ại 197
B 196
I 196
hà 196
liền 196
lừa 196
òng 196
Dù 195
Pháp 195
Ro@@ 195
tá 195
ca@@ 194
cục 194
thấu 194
ê@@ 194
ản 194
Phải 193
cam 193
côn 193
gỗ 193
ngọn 193
triết 193
trào 193
ảng 193
ụ 193
ard 192
hè 192
Bằng 191
Em 191
T 191
béo 191
khía 191
land 191
lũ 191
O 190
dối 190
hối 190
móc 190
nấm 190
thoải 190
đập 190
Liên 189
ey 189
khảo 189
sụp 189
ộc 189
ụt 189
khung 188
kí 188
thờ 188
v 188
â@@ 188
ận 188
199@@ 187
Thái 187
bậc 187
hoàng 187
mạc 187
thầy 187
ễn 187
ADN 186
Ba 186
ăm 186
ế@@ 186
Phần 185
mưa 185
ngưỡng 185
rượu 185
ây 185
ệt 185
ọ 185
Car@@ 184
chốt 184
hỗn 183
ày 183
ệ 183
Sẽ 182
Thuỵ 182
che 182
căng 182
huấn 182
mỏ 182
so@@ 182
ô-@@ 182
ee@@ 181
ghét 181
kêu 181
táo 181
vâng 181
ấu 181
ủ 181
one 180
chối 179
ne 179
rắc 179
đắt 178
bảy 177
mì 177
ngón 177
nút 177
sa 177
Hôm 176
Ti@@ 176
khuyến 176
nhũng 176
oo@@ 176
thuyền 176
ỏ 176
Mo@@ 175
mũi 175
truy 175
trầm 175
túc 175
Afghanistan 174
Nhìn 174
biện 174
hắn 174
se@@ 174
út 174
ọt 174
Hầu 173
Iran 173
Ne@@ 173
ani@@ 173
phán 173
Ả 173
18@@ 172
To@@ 172
cháy 172
gọn 172
ter 172
thọ 172
trứng 172
David 171
cụt 171
tỉnh 171
xong 171
John 170
dày 170
khát 170
song 170
thuê 170
ói 170
ực 170
L 169
TV 169
cỏ 169
dinh 169
giận 169
or 169
thiểu 169
ẩm 169
ổng 169
16 168
Bu@@ 168
bông 168
giành 168
săn 168
thả 168
xoá 168
14 167
La@@ 167
cỗ 167
hồn 167
mạo 167
nấu 167
ro 167
ry 167
sa@@ 167
th 167
tia 167
ỹ 167
binh 166
bột 166
cột 166
khiếp 166
thánh 166
va 166
xứng 166
ược 166
ắc 166
Lo@@ 165
Mặt 165
Sao 165
đắn 165
ọng 165
lộn 164
mò 164
đốt 164
ũ 164
ầu 164
bãi 163
ed 163
ngũ 163
ỵ 163
00 162
R 162
TED@@ 162
go 162
mai 162
protein 162
rủi 162
thạch 162
tụ 162
òi 162
ưởng 162
ỗi 162
,@@ 161
13 161
200@@ 161
21 161
Di@@ 161
at 161
bạc 161
go@@ 161
iến 161
mát 161
te@@ 161
thiệp 161
thuần 161
truyện 161
áu 161
đốc 161
0,000 160
khóc 160
miền 160
mộ 160
rưỡi 160
ve 160
xưa 160
Na@@ 159
chừng 159
dọc 159
nhỉ 159
uyên 159
vườn 159
Đã 159
ịch 159
.. 158
huyết 158
iết 158
ke@@ 158
răng 158
tặng 158
In@@ 157
Q@@ 157
bia 157
dị 157
đĩa 157
Lý 156
gương 156
hước 156
ter@@ 156
xâm 156
ao 155
cốt 155
dính 155
ell 155
ném 155
phó 155
xạ 155
ình 155
đài 155
ắp 155
ựu 155
chẩn 154
hiến 154
iệ@@ 154
nhấn 154
ư@@ 154
ạng 154
ệ@@ 154
ham 153
miệng 153
pin 153
thẩm 153
tóc 153
ươi 153
cẩn 152
ỗng 152
Ber@@ 151
chai 151
leo 151
mẩu 151
trộn 151
tuỳ 151
ứt 151
Chắc 150
K 150
Ste@@ 150
bạch 150
cốc 150
dy 150
huy 150
men 150
thu@@ 150
ti 150
tò 150
đớn 150
ộ 150
Cơ 149
ler 149
ley 149
lỏng 149
miêu 149
ngài 149
À 149
đáy 149
Re@@ 148
bi@@ 148
chu 148
gà 148
quê 148
tạm 148
xu@@ 148
đi@@ 148
đón 148
ốm 148
bắc 147
cường 147
game 147
ngầm 147
rào 147
vuông 147
Giáo 146
ba@@ 146
mar@@ 146
nhạy 146
re 146
Á 146
Đôi 146
đậu 146
Bro@@ 145
Cực 145
Thậm 145
Thời 145
cá@@ 145
hạng 145
iếp 145
iều 145
mb@@ 145
quái 145
ôm 145
ịnh 145
Chuyện 144
Col@@ 144
gan 144
hiệp 144
kiên 144
ngã 144
phổi 144
trắc 144
California 143
E 143
Facebook 143
Lan 143
ad 143
hẹn 143
quét 143
thoảng 143
úc 143
300 142
Giống 142
Israel 142
blog 142
giày 142
gu@@ 142
lão 142
tuệ 142
xo@@ 142
17 141
bốt 141
nà@@ 141
pha 141
rồ 141
tây 141
ót 141
ơ@@ 141
ọn 141
ứa 141
H 140
Kinh 140
Lần 140
ngựa 140
nướng 140
pe@@ 140
Mĩ 139
OK 139
P 139
bo@@ 139
giường 139
lây 139
tóm 139
óng 139
đeo 139
ớ@@ 139
ữ 139
24 138
chăng 138
co@@ 138
hoại 138
khô 138
quán 138
tri@@ 138
trôi 138
áy 138
úp 138
đếm 138
2000 137
Cả 137
Kết 137
bổ 137
do@@ 137
hằng 137
lưng 137
mèo 137
nét 137
thợ 137
Ban 136
DNA 136
Khán 136
bon 136
dàn 136
hứa 136
lẻ 136
tiếc 136
í@@ 136
ùm 136
úa 136
ụng 136
Chris 135
Nhân 135
mãn 135
tuy 135
á@@ 135
ắng 135
ể 135
ỳ 135
19 134
ano 134
chấn 134
der@@ 134
hỏng 134
mẻ 134
the@@ 134
trạm 134
tuyết 134
Đến 134
ắm 134
Cùng 133
dán 133
et 133
gói 133
trăng 133
đảng 133
ẫy 133
Bất 132
bụng 132
der 132
ff@@ 132
kèm 132
óm 132
ặn 132
khuyên 131
ninh 131
tám 131
ính 131
ết 131
ị@@ 131
ừa 131
1.@@ 130
Bo@@ 130
Hu@@ 130
Ni@@ 130
cong 130
gã 130
gỡ 130
se 130
tiệc 130
ẫm 130
Brazil 129
Ha@@ 129
bur@@ 129
cụm 129
du@@ 129
hô 129
kênh 129
quà 129
virus 129
è 129
ịt 129
De@@ 128
Hoá 128
Je@@ 128
Se@@ 128
co 128
dã 128
dò 128
email 128
khao 128
lâm 128
lôi 128
lệnh 128
trần 128
tĩnh 128
ỏi 128
ổi 128
Canada 127
Dĩ 127
Mexico 127
Mặc 127
The 127
W 127
hư 127
im@@ 127
ngon 127
ón 127
ự 127
AIDS 126
Cam@@ 126
Mc@@ 126
N 126
cho@@ 126
ev@@ 126
giơ 126
thói 126
tung 126
đực 126
Hội 125
Mu@@ 125
Pal@@ 125
Vài 125
ate 125
giấu 125
mờ 125
na 125
tha 125
trưa 125
vinh 125
Điển 125
198@@ 124
Li@@ 124
all 124
bão 124
cúm 124
hố 124
lãm 124
ng-@@ 124
ngọt 124
quí 124
sàn 124
van 124
õ@@ 124
ẩy 124
ớt 124
Jo@@ 123
Nga 123
dứt 123
et@@ 123
gián 123
lặn 123
phiền 123
trốn 123
ãnh 123
ằng 123
ếp 123
Nghệ 122
chìm 122
dao 122
heo 122
n. 122
Bill 121
Rập 121
cú 121
cất 121
dư 121
hàm 121
su 121
thuế 121
thăng 121
tân 121
ếch 121
Kenya 120
ck@@ 120
iểu 120
khoan 120
me 120
ượ@@ 120
&apos;s 119
Gần 119
Har@@ 119
buôn 119
iếu 119
iện 119
lõi 119
mệnh 119
ngắm 119
thổi 119
ts 119
à@@ 119
ù 119
ện 119
ử 119
Bar@@ 118
London 118
Trường 118
bận 118
hang 118
lăn 118
ngu 118
rét 118
sưu 118
tươi 118
Úc 118
ỗ 118
Iraq 117
Ta@@ 117
Tiếp 117
ar 117
bếp 117
bụi 117
dáng 117
dược 117
khỉ 117
nho 117
quát 117
sữa 117
xinh 117
ướ@@ 117
ượn 117
– 117
Ba@@ 116
ga 116
no@@ 116
nảy 116
san 116
tắm 116
Học 115
Khoảng 115
cấm 115
ds 115
gõ 115
i. 115
liều 115
làn 115
muỗi 115
ãy 115
ụ@@ 115
0 114
Hy 114
ans 114
camera 114
lường 114
phì 114
tháp 114
thẻ 114
thịnh 114
trục 114
ul@@ 114
ì@@ 114
ùa 114
Bao 113
bùng 113
c-@@ 113
feet 113
lang 113
say 113
thám 113
tí 113
X-quang 112
bó 112
hải 112
kín 112
lông 112
mo@@ 112
thua 112
thùng 112
trượt 112
tủ 112
ó@@ 112
ố@@ 112
châm 111
giam 111
khớp 111
ngập 111
nhẫn 111
nhắm 111
nu@@ 111
nàng 111
rô 111
tị 111
ấ@@ 111
ẹp 111
3D 110
Bài 110
Mon@@ 110
San 110
ang@@ 110
ari@@ 110
ick 110
khu@@ 110
lướt 110
nốt 110
phạt 110
te 110
thỉnh 110
tướng 110
ver@@ 110
èn 110
ảy 110
Bố 109
Cộng 109
Trời 109
chúa 109
rau 109
rãi 109
đu@@ 109
400 108
Thiên 108
Y 108
ali@@ 108
cuộn 108
ge@@ 108
gấu 108
ina 108
khôn 108
nở 108
thiệt 108
tháo 108
xóm 108
ãi 108
GDP 107
Hơn 107
Tu@@ 107
quãng 107
trà 107
ênh 107
Bức 106
CO2 106
gh 106
hầm 106
ngốc 106
nọ 106
phái 106
tông 106
đo@@ 106
ậm 106
ẳ@@ 106
ềm 106
ợt 106
Ra@@ 105
Thử 105
Vi@@ 105
mạn 105
ox@@ 105
phú 105
sơn 105
àu 105
đâm 105
Einstein 104
Hệ 104
Này 104
Twitter 104
be@@ 104
carbon 104
dám 104
dắt 104
nghi@@ 104
ngo@@ 104
nhãn 104
sung 104
vắc 104
ìn 104
ó 104
đuôi 104
ởi 104
Ngo@@ 103
Thành 103
Tương 103
ah 103
bong 103
he@@ 103
khuy@@ 103
slide 103
thính 103
toả 103
uyền 103
ver 103
ậy 103
ợ@@ 103
Ja@@ 102
Thông 102
ack 102
bút 102
bớt 102
nhở 102
nắng 102
ranh 102
tuyển 102
ố 102
Chủ 101
Hoả 101
Hà 101
Mục 101
Số 101
chìa 101
cậy 101
dãy 101
iểm 101
lát 101
mũ 101
um 101
1,@@ 100
Dương 100
Quan 100
bọ 100
chước 100
cưỡng 100
hệt 100
kho 100
khơi 100
lò 100
mệt 100
ngực 100
ori@@ 100
phẳng 100
thô 100
thưa 100
ặng 100
ứ 100
ửng 100
150 99
Chiến 99
Ngài 99
Par@@ 99
Tin 99
Washington 99
cac@@ 99
chục 99
hoả 99
trấn 99
tuý 99
vở 99
Ôi 99
điêu 99
ười 99
ễ 99
--@@ 98
45 98
Cứ 98
Ki@@ 98
Nha 98
Ri@@ 98
Viện 98
lạm 98
po@@ 98
vải 98
đới 98
ĩa 98
ều 98
ộp 98
2008 97
Chiếc 97
George 97
Paul 97
den 97
gánh 97
hòn 97
khi@@ 97
khúc 97
lùi 97
mỹ 97
ủi 97
Ari@@ 96
Ge@@ 96
Hàng 96
Loại 96
Nigeria 96
Tiếng 96
cưới 96
cởi 96
hãng 96
ks 96
nghịch 96
thâm 96
vua 96
website 96
ỏ@@ 96
Charles 95
Cập 95
Me@@ 95
Sa@@ 95
Thổ 95
Tốt 95
ans@@ 95
chở 95
dr@@ 95
kịp 95
muộn 95
mỏi 95
nghiện 95
nợ 95
sốc 95
t-@@ 95
ve@@ 95
ìm 95
òm 95
đế 95
&amp; 94
Bảo 94
So@@ 94
aw@@ 94
ling 94
mấu 94
thuẫn 94
thôn 94
ãn 94
ạ@@ 94
ừ 94
197@@ 93
Dự 93
Hình 93
duyệt 93
internet 93
lật 93
múa 93
ng. 93
nhiếp 93
nhặt 93
rung 93
rễ 93
ẽ@@ 93
Khoa 92
Nghe 92
Quá 92
Rõ 92
Thượng 92
Wal@@ 92
i-@@ 92
ria 92
rập 92
vây 92
ên 92
địch 92
đố 92
ưỡi 92
1000 91
Tên 91
ci@@ 91
cuồng 91
cối 91
hưu 91
hồng 91
ker 91
khiếm 91
my 91
ngoan 91
sứ 91
un 91
èo 91
ú@@ 91
đồi 91
ẫn 91
2.@@ 90
Bình 90
Bệnh 90
Gu@@ 90
Nor@@ 90
Tự 90
ana 90
khói 90
khôi 90
long 90
ráp 90
tần 90
wn 90
ya 90
ă@@ 90
đẻ 90
ằm 90
Da@@ 89
Hiệp 89
MIT 89
Ok 89
Po@@ 89
Toàn 89
sh 89
sạn 89
vươn 89
íu 89
ỉa 89
ịp 89
ụn 89
Thiết 88
Tình 88
col@@ 88
cr@@ 88
cướp 88
dải 88
gối 88
ha 88
hẹp 88
non 88
phím 88
rắn 88
rửa 88
Á@@ 88
75 87
Be@@ 87
Bắt 87
Ngân 87
Wi@@ 87
cừu 87
da@@ 87
est@@ 87
khuyết 87
mảng 87
mồi 87
sắt 87
treo 87
đoan 87
ề@@ 87
ủ@@ 87
ữ@@ 87
2010 86
35 86
bơm 86
dẻo 86
khẳng 86
lưỡng 86
lận 86
manh 86
quy@@ 86
sk@@ 86
đạn 86
ằn 86
GPS 85
Los 85
X 85
are 85
ber@@ 85
chín 85
cắm 85
ir 85
iếm 85
khoái 85
mâu 85
xi 85
đáo 85
đạc 85
ớp 85
Bên 84
J 84
Oh 84
Sha@@ 84
Thomas 84
lệch 84
lợn 84
màng 84
nhầm 84
vẹn 84
đàm 84
ươ@@ 84
ển 84
ỉnh 84
Dân 83
Jos@@ 83
Pakistan 83
Sh@@ 83
dâm 83
kẹo 83
lin 83
lấp 83
ngu@@ 83
ob@@ 83
que 83
stress 83
ô-la 83
ơm 83
Cha 82
Máy 82
Phụ 82
bắp 82
ep@@ 82
hy@@ 82
ka 82
les 82
pp@@ 82
tuân 82
Âm 82
àm 82
ộ@@ 82
Chà 81
ED 81
Tiến 81
cạn 81
dọn 81
gene 81
km 81
lờ 81
ny 81
vĩnh 81
wi@@ 81
ấc 81
Al 80
Haiti 80
Kể 80
Lin@@ 80
buýt 80
cel@@ 80
huyền 80
khiêu 80
mòn 80
mỏng 80
nô 80
qui 80
ron 80
thằng 80
ven 80
đền 80
ậu 80
Bi@@ 79
Cu@@ 79
Mat@@ 79
Michael 79
Tuyệt 79
cắp 79
f 79
ga@@ 79
ger 79
giãn 79
len 79
thắc 79
trân 79
tựa 79
ã@@ 79
ím 79
ín 79
đỗ 79
ơ-ron 79
ợi 79
Adam 78
Mal@@ 78
Nơi 78
Ros@@ 78
chúc 78
chợ 78
cương 78
dạo 78
id@@ 78
kẹt 78
mồ 78
ýt 78
đợt 78
ợp 78
Bal@@ 77
F 77
James 77
PM 77
Pa@@ 77
chăn 77
củ@@ 77
ela 77
kiệt 77
quyên 77
ster 77
y. 77
ù@@ 77
ẹo 77
ụi 77
ửi 77
Du@@ 76
Tổng 76
ack@@ 76
amp 76
hôi 76
id 76
lũng 76
lượt 76
mười 76
xám 76
yl@@ 76
chua 75
of 75
the 75
thép 75
vỗ 75
Hàn 74
Scot@@ 74
V 74
bọc 74
oh 74
rẽ 74
ũi 74
ạm 74
ễu 74
ỉ@@ 74
2007 73
Obama 73
TEDx@@ 73
ill 73
na@@ 73
ran@@ 73
tro@@ 73
ẩu 73
ồ@@ 73
600 72
Fran@@ 72
Ju@@ 72
NASA 72
Pe@@ 72
ary 72
dũng 72
eo 72
hung 72
ic 72
ọi 72
ừu 72
ữa 72
50@@ 71
Dan 71
No@@ 71
ão 71
&apos;@@ 70
Chi@@ 70
Richard 70
Robert 70
oc@@ 70
trộm 70
ùi 70
ẳng 70
2009 69
ania 69
by 69
enti@@ 69
hacker 69
iPhone 69
súc 69
za 69
òn 69
úi 69
ứ@@ 69
ừ@@ 69
ửa 69
Darwin 68
Juli@@ 68
Wikipedia 68
bê 68
ho 68
ney 68
nhu@@ 68
ol 68
23 67
40@@ 67
Derek 67
Francisco 67
Ken@@ 67
Paris 67
Ru@@ 67
Sar@@ 67
ner 67
per@@ 67
vir@@ 67
war@@ 67
é@@ 67
65 66
Angeles 66
Harvard 66
Jer@@ 66
Nobel 66
mon@@ 66
radio 66
ợ 66
22 65
Steve 65
Wh@@ 65
ax@@ 65
chuy@@ 65
ham@@ 65
logic 65
pu@@ 65
óp 65
ưới 65
ầ@@ 65
ẻo 65
15@@ 64
Ben@@ 64
Do@@ 64
Go@@ 64
Martin 64
May 64
Thu@@ 64
a-@@ 64
eria 64
ray 64
sp@@ 64
tu 64
ắ@@ 64
Amazon 63
Con@@ 63
Fi@@ 63
MRI 63
Sahara 63
Tor@@ 63
U 63
amin 63
ce@@ 63
giọt 63
ể@@ 63
196@@ 62
Big 62
Sy@@ 62
US@@ 62
ey@@ 62
sia 62
ạy 62
ảm 62
ựa 62
2005 61
Or@@ 61
Pi@@ 61
Willi@@ 61
ca-@@ 61
ei@@ 61
iển 61
00@@ 60
27 60
Bang 60
Boston 60
Joe 60
Mark 60
Rob@@ 60
ane 60
berg 60
fu@@ 60
nhiễ@@ 60
oxytocin 60
99 59
Alzheimer 59
Bur@@ 59
Man@@ 59
Smith 59
Tom 59
inch 59
laptop 59
ose 59
phi@@ 59
ren@@ 59
èm 59
2,@@ 58
95 58
Manhattan 58
New@@ 58
PA 58
Per@@ 58
dan 58
ky@@ 58
licon 58
ota 58
tiệ@@ 58
Ả@@ 58
26 57
Chicago 57
Don@@ 57
Ed@@ 57
Ka@@ 57
Peter 57
golf 57
gạch 57
ườn 57
0.@@ 56
1990 56
29 56
Hol@@ 56
II 56
Rwanda 56
Wat@@ 56
You@@ 56
mer 56
ậ@@ 56
ờ@@ 56
2006 55
Jon@@ 55
Wol@@ 55
mm 55
olu@@ 55
oper@@ 55
run 55
ten 55
ther 55
ut@@ 55
ãng 55
ịu 55
195@@ 54
28 54
Apple 54
CD 54
Eric 54
Gabby 54
Gal@@ 54
Ke@@ 54
La 54
San@@ 54
ban@@ 54
lay 54
o-@@ 54
ẫu 54
ặ@@ 54
ớn 54
.com 53
C. 53
CA@@ 53
Ca@@ 53
John@@ 53
Okay 53
Times 53
Tri@@ 53
art 53
sey 53
ía 53
ở@@ 53
33 52
Bab@@ 52
Bra@@ 52
Carol@@ 52
En@@ 52
Her@@ 52
Hi@@ 52
Rio 52
ald 52
ene@@ 52
pol@@ 52
via 52
ọ@@ 52
1960 51
2004 51
AR@@ 51
Bon@@ 51
Frank 51
Ga@@ 51
iếc 51
ut 51
ũng 51
Ư@@ 51
2011 50
Am@@ 50
Ben 50
Cal@@ 50
Tony 50
ama 50
bert 50
ff 50
n-@@ 50
ot 50
sha@@ 50
tw@@ 50
ườ@@ 50
ạnh 50
Henry 49
Mel@@ 49
ướt 49
250 48
iP@@ 48
ẵ@@ 48
ẹn 48
ếm 48
ựng 48
Brian 47
Q 47
YouTube 47
em@@ 47
ite 47
ỡ@@ 47
ự@@ 47
10,000 46
17@@ 46
32 46
ĩ@@ 46
ả@@ 46
ộm 46
mi 45
úm 45
Taliban 44
Ừ 44
Ghana 43
ẹ@@ 43
Í@@ 42
Lib@@ 41
Br@@ 38
— 38
q@@ 37
ũ@@ 37
yan 36
+ 34
õ 34
ẻ@@ 33
ử@@ 31
ỳ@@ 30
ổ@@ 29
ý@@ 27
Ă@@ 26
Ô 25
= 23
Triều 23
ẩ@@ 23
… 23
ễ@@ 22
) 21
ẹ 20
Ờ 20
j 19
Z 18
Ẩ@@ 18
# 17
Tiên 17
Ứ@@ 17
Ừ@@ 17
Ô@@ 16
è@@ 15
ằ@@ 15
Â@@ 14
Ấ@@ 14
Ổ@@ 14
ç@@ 13
ỗ@@ 13
¼ 11
Ơ@@ 11
ẫ@@ 11
@ 10
ỵ@@ 10
_ 9
À@@ 9
ò@@ 9
Ê 8
Ộ@@ 8
( 7
ö@@ 7
ầ 7
Ố@@ 7
ỷ@@ 7
ỹ@@ 7
* 6
Ì 6
Ú@@ 6
̣ 6
Ủ@@ 6
\ 5
q 5
© 5
â 5
ø@@ 5
ü@@ 5
Đ 5
Ạ@@ 5
Ậ@@ 5
Ắ@@ 5
Ế@@ 5
` 4
½ 4
¾ 4
Ù@@ 4
ă 4
Ơ 4
อ@@ 4
ẫ 4
 4
~ 3
£ 3
Ê@@ 3
ä@@ 3
đ 3
ấ 3
Ệ@@ 3
Ồ@@ 3
Ự 3
`@@ 2
} 2
² 2
Ã@@ 2
É@@ 2
Ì@@ 2
Ó 2
ë 2
ć 2
̀ 2
́ 2
ย 2
ร 2
่ 2
Ầ@@ 2
ậ 2
Ể@@ 2
Ị@@ 2
Ọ@@ 2
Ố 2
Ờ@@ 2
Ử 2
​ 2
 2
{ 1
® 1
Â 1
Í 1
ï@@ 1
ñ@@ 1
ø 1
ā@@ 1
Č@@ 1
Ĩ 1
Ť 1
́ 1
Ầ 1
ẳ 1
ẵ 1
Ẻ 1
Ẻ@@ 1
Ể 1
Ỉ@@ 1
Ổ 1
Ỗ@@ 1
Ớ@@ 1
Ở@@ 1
Ụ 1
Ứ 1
Ữ 1
Ỵ 1
€ 1
ｃ 1
madeupword0000 0
