, 149530
. 130079
the 98832
to 63301
of 57817
a 54313
and 54031
that 44564
I 42392
in 38255
is 33200
you 32014
it 30598
&apos;s 28615
we 27544
And 22860
this 20767
&quot; 18217
was 15543
for 14768
on 14390
are 14252
have 13803
they 13338
with 12727
-- 11980
can 11872
? 11591
So 11578
&apos;t 11237
what 11105
about 10729
be 10281
at 10063
as 9789
all 9497
not 9135
do 9028
an 8743
my 8725
one 8401
&apos;re 8390
there 8344
It 8282
people 8214
like 8142
from 7844
so 7557
or 7473
but 7028
me 7008
our 6941
: 6923
just 6673
We 6545
The 6527
these 6271
very 6231
out 6146
if 6126
re@@ 6013
them 5907
by 5819
But 5683
up 5646
going 5639
more 5628
when 5603
know 5533
because 5428
had 5300
he 5200
your 5171
us 5167
think 5110
how 5109
see 5064
were 5045
who 5034
their 5014
would 4912
really 4909
which 4907
get 4782
-@@ 4521
&apos;ve 4490
&apos;m 4477
way 4430
time 4399
This 4311
You 4306
here 4297
world 4248
then 4189
actually 4084
has 4070
some 4063
into 3981
don 3964
years 3863
Now 3834
now 3765
things 3765
will 3712
other 3709
ing 3705
They 3668
in@@ 3617
where 3613
go 3600
ed 3575
want 3573
S@@ 3494
could 3488
make 3459
e@@ 3414
s@@ 3411
been 3335
said 3273
p@@ 3191
a@@ 3152
something 3111
than 3102
es 3097
b@@ 3055
d@@ 3030
no 3001
thing 2999
much 2996
two 2976
right 2967
first 2934
also 2846
those 2837
s 2811
work 2803
en@@ 2750
li@@ 2735
life 2726
t@@ 2725
back 2697
look 2691
y@@ 2690
say 2689
got 2687
That 2685
di@@ 2680
little 2667
In 2640
she 2603
g@@ 2585
his 2581
un@@ 2574
need 2550
i@@ 2533
al 2530
over 2530
only 2522
t 2517
an@@ 2513
What 2512
o@@ 2501
most 2495
able 2460
even 2454
ting 2449
lot 2438
ti@@ 2420
u@@ 2392
A@@ 2387
e 2383
many 2383
take 2383
ate 2372
de@@ 2367
ri@@ 2356
did 2342
new 2296
; 2289
c@@ 2281
ted 2268
around 2256
y 2252
kind 2224
good 2222
different 2218
her 2206
There 2204
B@@ 2183
day 2168
f@@ 2153
ch@@ 2149
through 2079
come 2075
down 2061
its 2053
ar@@ 2050
er 2048
or@@ 2046
use 2001
m@@ 1993
Well 1982
&apos;ll 1977
M@@ 1968
ated 1963
same 1946
l@@ 1941
He 1932
ds 1931
every 1921
being 1920
ly 1916
C@@ 1915
er@@ 1911
k@@ 1891
st@@ 1884
If 1877
r@@ 1877
ts 1875
put 1869
doing 1867
sh@@ 1854
ers 1834
any 1784
called 1778
h@@ 1761
ex@@ 1747
P@@ 1737
m 1726
T@@ 1712
E@@ 1709
percent 1703
&apos;d 1696
three 1694
made 1691
why 1679
co@@ 1673
el@@ 1666
se@@ 1646
w@@ 1636
talk 1635
si@@ 1630
le@@ 1628
change 1624
mi@@ 1624
lo@@ 1606
ation 1605
tell 1605
year 1600
H@@ 1596
o 1588
well 1581
own 1579
p 1572
con@@ 1571
on@@ 1561
as@@ 1550
fact 1540
today 1537
tion 1534
tr@@ 1532
al@@ 1531
didn 1529
find 1529
at@@ 1516
n@@ 1516
le 1494
let 1494
st 1491
A 1490
it@@ 1488
F@@ 1485
idea 1482
D@@ 1481
end 1479
brain 1475
Thank 1470
started 1465
G@@ 1450
should 1449
sp@@ 1449
th@@ 1448
went 1446
great 1440
tions 1437
human 1424
last 1415
se 1411
big 1401
ent 1401
thought 1395
after 1394
ab@@ 1387
be@@ 1387
v@@ 1385
important 1383
ad@@ 1382
ac@@ 1380
before 1379
course 1376
ding 1375
os@@ 1370
give 1360
R@@ 1356
might 1356
red 1356
ded 1347
i 1346
story 1346
z@@ 1345
O@@ 1341
problem 1341
L@@ 1339
su@@ 1331
better 1316
off 1316
fi@@ 1315
never 1314
ro@@ 1306
less 1305
show 1296
still 1295
part 1294
bit 1291
d 1289
la@@ 1289
ment 1289
place 1288
ve 1288
vi@@ 1278
came 1261
each 1261
next 1256
l 1253
k 1251
When 1244
together 1243
op@@ 1238
start 1235
another 1231
pro@@ 1228
ago 1221
him 1216
system 1216
ra@@ 1206
me@@ 1205
does 1204
try 1201
between 1200
few 1199
N@@ 1195
es@@ 1195
How 1192
age 1189
&apos; 1185
used 1182
ph@@ 1180
to@@ 1175
man 1174
ec@@ 1173
am 1170
question 1163
again 1159
om@@ 1158
ous 1155
I@@ 1154
en 1154
K@@ 1150
ever 1149
data 1146
water 1146
mean 1141
love 1137
too 1130
found 1127
ke 1127
ni@@ 1123
women 1117
example 1116
ap@@ 1112
Because 1105
pre@@ 1099
done 1097
bi@@ 1091
il@@ 1085
ma@@ 1083
understand 1081
led 1079
wanted 1075
inter@@ 1073
looking 1068
doesn 1066
live 1066
long 1066
ng@@ 1066
point 1064
n 1061
children 1057
ver@@ 1057
g 1055
real 1055
ter 1048
ol@@ 1047
school 1047
j@@ 1045
technology 1045
always 1043
ally 1040
believe 1032
de 1027
call 1025
for@@ 1025
working 1024
person 1015
per@@ 1011
money 1009
light 1005
po@@ 999
qu@@ 999
four 995
sort 993
au@@ 990
dis@@ 990
pe@@ 987
away 982
ag@@ 981
may 981
10 976
body 976
kids 970
les 968
ance 965
am@@ 964
information 964
create 963
whole 963
ant 956
king 955
ge@@ 952
W@@ 950
bu@@ 950
feel 950
old 946
trying 944
country 940
th 937
help 934
bo@@ 931
mo@@ 929
ling 928
ors 927
using 921
million 917
ca@@ 915
means 915
tic 913
J@@ 912
food 911
My 908
power 905
making 902
pi@@ 899
side 898
ks 892
become 889
comes 889
cu@@ 889
ne@@ 888
thinking 885
took 883
maybe 882
home 881
ir@@ 881
ta@@ 874
One 869
gu@@ 868
ci@@ 866
five 866
ves 866
everything 865
tive 864
ins 862
min@@ 862
quite 861
als 860
space 860
room 858
ans 855
future 854
ty 840
tu@@ 839
best 838
mu@@ 836
second 836
ho@@ 835
men 835
getting 832
ity 827
number 825
Why 821
These 820
enough 819
ou@@ 816
ter@@ 816
design 814
ies 813
says 812
ot@@ 810
social 810
She 809
lives 807
ms 804
sion 804
te@@ 801
energy 799
is@@ 799
! 798
ask 797
ine 797
gra@@ 796
wi@@ 796
small 795
times 793
sense 792
ence 790
ways 790
der 789
left 789
the@@ 789
pri@@ 788
ments 787
happened 785
cr@@ 783
par@@ 778
probably 776
so@@ 776
no@@ 775
x 775
countries 774
.@@ 773
Let 770
ce 770
told 768
talking 764
makes 763
case 759
ability 758
ful 758
ur@@ 758
dollars 757
set 757
imp@@ 753
science 752
pretty 751
without 749
sa@@ 747
cells 746
du@@ 746
x@@ 743
build 742
moment 742
form 740
learn 735
experience 732
happen 732
com@@ 731
simple 731
ev@@ 729
interesting 729
care 728
saw 726
ties 726
For 723
mar@@ 720
asked 717
sti@@ 716
while 715
such 713
tri@@ 713
building 712
ic 712
Here 711
lu@@ 711
coming 710
str@@ 710
across 709
stuff 709
ations 708
car@@ 708
do@@ 703
living 703
b 702
words 702
city 700
te 699
20 698
book 698
hard 698
half 697
anything 693
else 693
goes 693
hand 690
happens 688
move 687
sure 687
mind 686
art 682
family 682
ic@@ 680
inside 680
later 679
ch 676
reason 674
gi@@ 672
process 671
ses 671
days 670
As 669
No 669
seen 669
son 669
U@@ 667
ates 667
sub@@ 667
h 664
having 663
sing 663
ary 662
ha@@ 660
line 657
ones 656
ness 655
top 654
tra@@ 654
yet 654
res 652
ons 651
wrong 650
pu@@ 648
single 647
music 645
ps 645
business 642
hi@@ 641
V@@ 640
3@@ 639
play 639
pl@@ 635
young 635
50 633
looked 633
man@@ 631
problems 631
high 630
project 630
bad 629
ru@@ 627
re 626
myself 625
computer 624
health 622
someone 622
word 622
All 619
trans@@ 618
land 617
saying 617
tional 614
ideas 613
picture 613
within 613
den@@ 611
often 611
answer 610
billion 610
sho@@ 610
In@@ 605
far 605
whether 605
car 603
public 603
New 601
language 601
pa@@ 600
mb@@ 599
child 598
once 597
video 597
Africa 596
gets 596
possible 596
true 596
both 594
order 594
ve@@ 594
ce@@ 593
matter 592
ze 592
im@@ 591
nothing 591
community 590
ined 590
per 589
almost 588
ori@@ 588
read 588
over@@ 586
imagine 584
gh@@ 583
der@@ 582
basically 580
har@@ 580
face 578
r 578
control 577
keep 577
w 577
30 575
built 574
global 573
sts 572
ser@@ 570
looks 569
works 568
cor@@ 567
ters 567
decided 566
guy 566
c 564
job 564
piece 564
sta@@ 564
heard 563
mon@@ 563
4@@ 562
ngs 562
amazing 559
dy 559
history 559
hope 559
Okay 558
ea@@ 558
ating 557
group 556
Re@@ 554
already 554
stories 553
med 552
night 551
ys 551
though 550
couple 547
tation 547
United 546
bring 545
wh@@ 545
fe@@ 544
pos@@ 544
um 544
enti@@ 543
he@@ 543
months 543
six 542
hu@@ 540
mp@@ 539
remember 539
taking 539
fu@@ 537
education 535
research 535
sur@@ 535
Earth 534
beautiful 534
wasn 534
&#91; 531
&#93; 531
ani@@ 530
des 529
government 529
ls 529
minutes 529
became 528
et 528
friends 528
open 527
ry 527
Ch@@ 526
go@@ 526
universe 525
share 523
woman 522
2@@ 521
est 521
ba@@ 519
under 519
&amp; 518
head 518
learned 518
run 518
created 517
view 517
ck 516
exactly 515
until 515
ver 514
ble 512
everybody 512
ning 512
ul@@ 511
nature 510
turn 510
China 509
States 509
gen@@ 509
men@@ 509
completely 506
ourselves 504
ving 504
heart 503
0s 502
happening 502
ents 501
ten@@ 501
themselves 501
society 500
study 500
ff@@ 499
huge 499
Internet 498
ws 497
act 495
culture 495
hours 495
war@@ 495
et@@ 493
front 493
under@@ 492
ess 491
questions 491
knew 488
level 488
places 488
cancer 487
state 487
d-@@ 486
ki@@ 486
kinds 486
na@@ 486
planet 486
somebody 485
and@@ 482
hear 482
TED 480
isn 480
itself 478
model 478
zed 478
Al@@ 477
Then 477
chi@@ 477
col@@ 477
ect 476
ying 476
Ar@@ 474
house 474
stop 474
American 473
Ma@@ 473
environment 473
game 473
out@@ 473
against 472
ster 472
ali@@ 471
name 471
everyone 470
tics 470
ite 469
anti@@ 468
ats 468
worked 468
difference 465
students 465
el 461
ga@@ 460
sive 460
19@@ 459
dec@@ 459
company 457
gave 457
sound 457
ved 457
changed 456
since 456
ven@@ 456
news 455
shows 455
India 454
others 454
past 454
Y@@ 453
couldn 453
we@@ 453
sh 452
war 452
mother 451
sometimes 451
ker 449
table 449
ke@@ 447
must 447
rather 447
thousands 447
100 446
America 446
Th@@ 446
ator 446
ge 446
turns 446
— 446
dly 445
particular 445
lation 444
sted 444
won 444
entire 443
ob@@ 443
da@@ 442
late 442
ice 441
ked 441
air 439
cal 439
ders 439
large 439
lin@@ 439
turned 439
ches 438
wing 438
... 437
can@@ 437
happy 435
outside 435
ang@@ 434
disease 434
during 434
ess@@ 434
based 433
century 433
figure 433
5@@ 432
takes 432
Oh 431
learning 431
God 430
fin@@ 430
early 429
ming 429
population 429
rest 429
comp@@ 428
spend 427
systems 426
ture 426
guys 425
ill 425
zing 425
dic@@ 424
lots 424
key 422
2 421
machine 421
ns 421
test 421
powerful 420
third 420
8@@ 419
ched 419
free 419
ously 419
species 419
7@@ 417
Or 417
id 417
least 417
ay 416
ose 416
U.S. 413
bur@@ 412
cap@@ 412
instead 412
sha@@ 412
cen@@ 411
ces 411
oil 411
animals 410
easy 410
known 410
cell 409
needed 409
sions 409
els 408
At 407
given 407
her@@ 407
natural 407
phone 407
self-@@ 407
team 406
along 405
em 405
yourself 405
cla@@ 404
fa@@ 404
lar@@ 404
lar 403
exp@@ 402
gr@@ 402
ore 401
realized 400
rou@@ 400
ther 400
difficult 399
tly 399
walk 399
father 398
ical 398
size 398
gre@@ 397
behind 396
felt 396
fil@@ 396
grow 396
finally 395
parents 395
simply 395
tal@@ 395
ching 394
image 394
bri@@ 393
economic 393
ep@@ 393
ju@@ 393
ler 393
needs 393
dra@@ 392
ground 392
inf@@ 391
close 390
sel@@ 390
sk@@ 390
rea@@ 389
u 389
friend 388
ck@@ 387
cli@@ 386
ee@@ 386
media 386
certain 385
low 385
An@@ 384
People 384
black 382
ton 382
area 381
companies 381
seeing 381
ear@@ 380
leave 380
paper 380
tle 380
win@@ 380
taken 379
ari@@ 377
eat 377
f 377
moving 377
cannot 374
eyes 374
full 374
perhaps 374
political 374
wor@@ 374
fac@@ 373
value 371
15 370
Do 370
spent 369
acy 368
bro@@ 368
local 368
tically 368
books 366
hands 366
wonderful 366
middle 365
parts 365
tic@@ 365
vo@@ 365
scale 364
ics 363
longer 363
seven 363
beginning 361
gener@@ 361
quickly 361
ber@@ 360
cities 359
stage 359
1@@ 358
8 358
amount 358
ality 357
fully 357
cost 356
cre@@ 356
fra@@ 356
mer 356
speak 356
cally 355
tan@@ 355
week 355
Is 354
eight 354
mer@@ 354
began 353
behavior 353
death 353
sed 353
shing 353
York 352
born 352
cur@@ 352
knowledge 352
t-@@ 351
terms 351
prot@@ 350
stri@@ 350
tro@@ 350
gar@@ 349
Le@@ 348
To 347
growth 347
1 346
Some 346
ines 346
De@@ 345
complex 345
field 345
cri@@ 344
ected 344
write 344
Su@@ 343
lost 343
hold 342
pe 342
ran@@ 342
step 341
tried 341
6 340
cal@@ 340
Our 339
common 339
images 339
super@@ 339
ism 338
ining 337
met 337
wa@@ 337
9@@ 336
app@@ 336
cing 336
fly 336
ned 336
tor 336
up@@ 336
z 336
4 335
giving 335
6@@ 334
attention 334
average 334
ine@@ 334
lic@@ 334
clear 333
deal 333
est@@ 333
pay 333
weeks 333
Yes 332
eri@@ 332
mis@@ 332
reality 332
wouldn 332
Mo@@ 331
ard 330
bio@@ 330
die 330
nu@@ 330
wn 330
forward 329
sitting 329
40 328
action 328
either 328
interested 328
market 328
personal 328
telling 328
tion@@ 328
box 327
buy 327
ely 327
opportunity 327
20@@ 326
dro@@ 326
morning 326
growing 325
lan@@ 325
dri@@ 324
fri@@ 324
solution 324
whatever 324
developed 323
plan@@ 323
Yeah 322
English 321
Mar@@ 321
changes 321
green 321
flo@@ 320
mat@@ 320
tors 320
feeling 319
girl 319
gone 319
qui@@ 319
bar@@ 318
economy 318
fear 318
ssed 318
tical 318
dr@@ 317
seems 317
solve 317
Just 316
animal 316
voice 316
9 315
On 315
brought 315
ma 315
ship 315
writing 315
ack 314
shed 314
DNA 313
lab 313
ne 313
physical 313
yed 313
ators 312
comb@@ 312
jo@@ 312
watch 312
board 311
medi@@ 311
film 310
force 310
ther@@ 310
tru@@ 310
cy@@ 309
realize 309
issue 308
sen@@ 308
ss 308
Ne@@ 307
alone 307
creating 307
ges 307
ots 307
resi@@ 307
tools 307
tw@@ 307
eng@@ 306
numbers 306
asking 305
dre@@ 305
kes 305
playing 305
short 305
structure 305
Can 304
ban@@ 304
changing 304
dd@@ 304
den 304
fla@@ 304
running 304
wrote 304
material 303
poor 303
ta 302
audience 301
ell 301
individual 301
inten@@ 301
starting 301
/ 300
Chinese 300
Si@@ 300
challenge 300
ens 300
stand 300
ths 300
bed 299
girls 299
ring 299
scientists 299
y-@@ 299
access 298
fun 298
my@@ 298
produce 298
quality 298
fast 297
pas@@ 297
save 297
focus 296
generation 296
likely 296
mic 296
millions 296
il 295
cut 294
developing 294
fer@@ 294
incredible 294
bra@@ 293
fied 293
oo@@ 293
provi@@ 293
3 292
ad 292
cations 292
blo@@ 291
climate 291
sion@@ 291
ended 290
equ@@ 290
knows 290
product 290
seem 290
xi@@ 290
Right 289
areas 289
ection 289
literally 289
mine 289
understanding 289
che@@ 288
humans 288
national 288
rate 288
TED@@ 287
discovered 287
experiment 287
ia 287
program 287
risk 287
0@@ 286
5 286
ner 286
clu@@ 285
fish 285
teach 285
12 284
innovation 284
vers 284
,000 283
anyone 283
blue 283
died 283
mental 283
moved 283
7 282
ar 282
normal 282
pla@@ 282
By 281
feet 281
gives 281
ecting 280
forms 280
tend 280
theory 280
type 280
cool 279
cul@@ 279
fun@@ 279
gh 279
ngly 279
nice 279
online 279
ping 279
result 279
C 278
OK 278
da 278
hundreds 278
ren@@ 278
S 277
aren 277
bottom 277
od@@ 277
rec@@ 277
ency 276
imag@@ 276
network 276
showed 276
ure 276
br@@ 275
cop@@ 275
Di@@ 274
Not 274
uses 274
explain 273
micro@@ 273
movement 273
patients 273
char@@ 272
eye 272
kid 272
ory 272
thank 272
D 271
cars 271
ects 271
ft 271
lt 271
materials 271
white 271
blood 270
industry 270
mber 270
ster@@ 270
Con@@ 269
incredibly 269
nger 269
sex 269
support 269
center 268
connected 268
games 268
hand@@ 268
patient 268
pictures 268
sm@@ 268
source 267
thi@@ 267
disa@@ 266
em@@ 266
especially 266
involved 266
lea@@ 266
potential 266
present 266
success 266
teachers 266
Z@@ 265
absolutely 265
ged 265
pul@@ 265
relationship 265
talked 265
auth@@ 264
bor@@ 264
cks 264
dead 264
impact 264
sses 264
surface 264
tal 264
St@@ 263
baby 263
continu@@ 263
ey 263
modern 263
Wh@@ 262
allow 262
dep@@ 262
development 262
disp@@ 262
ist 262
ld 262
reading 262
Me@@ 261
eating 261
groups 261
hea@@ 261
ocean 261
vari@@ 261
No@@ 260
class 260
ele@@ 260
meet 260
poli@@ 260
pur@@ 260
ut 260
25 259
air@@ 259
sal@@ 259
soon 259
tiny 259
Google 258
haven 258
hy@@ 258
por@@ 258
shape 258
ably 257
ack@@ 257
ort 257
schools 257
sleep 257
chance 256
deep 256
law 256
pan@@ 256
race 256
rules 256
sounds 256
sters 256
ace@@ 255
ature 255
ball 255
begin 255
designed 255
mag@@ 255
os 255
ss@@ 255
bes 254
resources 254
wers 254
60 253
Europe 253
World 253
ace 253
evolution 253
pros@@ 253
ward 253
yes 253
cra@@ 252
ig@@ 252
im 252
issues 252
journey 252
ners 252
okay 252
our@@ 252
road 252
South 251
cation 251
color 251
divi@@ 251
lose 251
ly@@ 251
major 251
off@@ 251
pres@@ 251
robot 251
send 251
situation 251
happiness 250
position 250
ages 249
becomes 249
ently 249
hour 249
na 249
technologies 249
Co@@ 248
available 248
choice 248
democracy 248
door 248
hundred 248
lived 248
office 248
self 248
tor@@ 248
active 247
recently 247
ssion 247
stic 247
street 247
deli@@ 246
map 246
minute 246
device 245
ene@@ 245
miles 245
month 245
predic@@ 245
star@@ 245
va@@ 245
worth 245
id@@ 244
message 244
pt 244
ron@@ 244
truth 244
wish 244
199@@ 243
nal 243
projects 243
ready 243
us@@ 243
Be@@ 242
First 242
beyond 242
guess 242
of@@ 242
pic@@ 242
stay 242
-year-old 241
Mu@@ 241
Of 241
approach 241
incre@@ 241
lim@@ 241
pol@@ 241
After 240
Maybe 240
So@@ 240
bigger 240
digital 240
la 240
memory 240
putting 240
see@@ 240
sig@@ 240
violence 240
vision 240
Every 239
coun@@ 239
mini@@ 239
dark 238
ited 238
meaning 238
onto 238
reasons 238
rom@@ 238
sto@@ 238
carbon 237
mechan@@ 237
ow@@ 237
tives 237
walking 237
wer 237
Bu@@ 236
brea@@ 236
hit 236
inv@@ 236
tells 236
ants 235
code 235
creative 235
individuals 235
list 235
teacher 235
aging 234
fall 234
lit@@ 234
strong 234
towards 234
La@@ 233
Where 233
basic 233
certainly 233
ear 233
evidence 233
favorite 233
fight 233
ide@@ 233
measure 233
medical 233
pped 233
pping 233
special 233
ste@@ 233
0,000 232
break 232
cause 232
drive 232
effect 232
ered 232
hor@@ 232
oun@@ 232
sent 232
similar 232
starts 232
Li@@ 231
bodies 231
coll@@ 231
crazy 231
everywhere 231
perfect 231
ree@@ 231
results 231
taught 231
Com@@ 230
Je@@ 230
chan@@ 230
fer 230
obviously 230
rela@@ 230
spread 230
uni@@ 230
Fi@@ 229
computers 229
examples 229
lines 229
moral 229
serve 229
smart 229
temp@@ 229
ery 228
fl@@ 228
interest 228
row 228
West 227
assu@@ 227
bul@@ 227
biggest 226
enter@@ 226
nor@@ 226
ong 226
pain@@ 226
sec@@ 226
showing 226
store 226
appli@@ 225
leaders 225
mor@@ 225
scientific 225
stra@@ 225
80 224
back@@ 224
boy 224
cle@@ 224
oper@@ 224
wat@@ 224
Pro@@ 223
ases 223
camera 223
cial 223
cru@@ 223
income 223
ll 223
ngu@@ 223
positive 223
regi@@ 223
sit 223
develop 222
hal@@ 222
mul@@ 222
particularly 222
rich 222
safe 222
sc@@ 222
software 222
waste 222
zation 222
Don 221
East 221
M 221
Ph@@ 221
cel@@ 221
sea 221
Even 220
dream 220
e-@@ 220
fire 220
indeed 220
tain 220
Mi@@ 219
Po@@ 219
follow 219
ken 219
ut@@ 219
18@@ 218
Hu@@ 218
Nor@@ 218
R 218
Sh@@ 218
alized 218
bal@@ 218
cer@@ 218
loved 218
non-@@ 218
sil@@ 218
student 218
TV 217
cultural 217
faster 217
general 217
pain 217
response 217
tally 217
totally 217
val@@ 217
vie@@ 217
watching 217
Are 216
add 216
ands 216
cho@@ 216
clos@@ 216
det@@ 216
mission 216
nine 216
son@@ 216
sum@@ 216
worse 216
Look 215
ative 215
choose 215
content 215
don@@ 215
further 215
lead 215
listen 215
reach 215
region 215
tool 215
bs 214
cha@@ 214
gt 214
several 214
communities 213
econom@@ 213
nobody 213
plan 213
version 213
200 212
Most 212
O 212
Ro@@ 212
activity 212
brains 212
drug 212
ences 212
high-@@ 212
largest 212
minds 212
peace 212
radi@@ 212
sy@@ 212
town 212
Un@@ 211
aci@@ 211
ber 211
decisions 211
wants 211
cep@@ 210
flu@@ 210
meant 210
ley 209
preci@@ 209
trust 209
Car@@ 208
Who 208
With 208
drugs 208
grew 208
jobs 208
mani@@ 208
mot@@ 208
named 208
screen 208
shown 208
tur@@ 208
Par@@ 207
continue 207
conver@@ 207
cou@@ 207
fle@@ 207
ner@@ 207
standing 207
syn@@ 207
thers 207
Bo@@ 206
allowed 206
cat@@ 206
ically 206
math 206
olu@@ 206
respon@@ 206
T 205
actions 205
anybody 205
mp 205
recor@@ 205
suddenly 205
tes 205
training 205
wait 205
wife 205
G 204
collabor@@ 204
cy 204
des@@ 204
ears 204
emer@@ 204
lights 204
squ@@ 204
Americans 203
B 203
ately 203
bom@@ 203
discu@@ 203
emp@@ 203
expect 203
expensive 203
fine 203
including 203
notice 203
ound 203
points 203
studies 203
tho@@ 203
HIV 202
cl@@ 202
context 202
dent 202
elec@@ 202
kill 202
movie 202
revolution 202
trees 202
village 202
vir@@ 202
buildings 201
cent 201
cked 201
finding 201
ra 201
sign 201
specific 201
trac@@ 201
wed 201
wel@@ 201
among 200
dance 200
eventually 200
excited 200
killed 200
mass 200
objects 200
ograp@@ 200
period 200
products 200
anymore 199
ards 199
cases 199
connect 199
demo@@ 199
hospital 199
models 199
one-@@ 199
pat@@ 199
skin 199
sli@@ 199
ton@@ 199
Ba@@ 198
David 198
adv@@ 198
cro@@ 198
ed@@ 198
extremely 198
ial 198
logy 198
main@@ 198
ny 198
offi@@ 198
pen@@ 198
plant 198
plants 198
poverty 198
truly 198
wind 198
Per@@ 197
Which 197
alive 197
allows 197
compu@@ 197
crisis 197
ei@@ 197
ja@@ 197
kept 197
page 197
rac@@ 197
solutions 197
ven 197
wall 197
Today 196
artist 196
ate@@ 196
compassion 196
foot@@ 196
fy 196
inst@@ 196
lies 196
listening 196
lower 196
pick 196
raise 196
search 196
traditional 196
Wi@@ 195
conflict 195
duc@@ 195
exciting 195
far@@ 195
impro@@ 195
logical 195
seconds 195
Se@@ 194
Tr@@ 194
Col@@ 193
conditions 193
dies 193
extraordinary 193
pattern 193
rise 193
sou@@ 193
Imagine 192
din@@ 192
hole 192
iled 192
service 192
stor@@ 192
timate 192
Na@@ 191
bl@@ 191
bot@@ 191
college 191
expla@@ 191
lations 191
logist 191
mit@@ 191
robots 191
skills 191
solar 191
sorts 191
successful 191
tings 191
North 190
alle@@ 190
ase 190
bunch 190
cope 190
docu@@ 190
ends 190
familiar 190
goal 190
ick 190
ists 190
series 190
wards 190
def@@ 189
faces 189
higher 189
machines 189
mathema@@ 189
mes 189
politics 189
publi@@ 189
sm 189
win 189
conversation 188
fore@@ 188
ight 188
life@@ 188
non@@ 188
production 188
role 188
sun 188
usually 188
consu@@ 187
freedom 187
gs 187
hot 187
insi@@ 187
kers 187
provide 187
ran 187
supposed 187
tar@@ 187
types 187
impossible 186
magic 186
neurons 186
ot 186
pieces 186
press 186
sia 186
speci@@ 186
11 185
Ju@@ 185
Ra@@ 185
dge 185
effective 185
ending 185
engineering 185
ey@@ 185
families 185
identi@@ 185
ost 185
que 185
site 185
verse 185
500 184
University 184
above 184
aps 184
aware 184
famous 184
ir 184
main 184
o-@@ 184
prom@@ 184
security 184
societies 184
somewhere 184
travel 184
ased 183
cking 183
func@@ 183
grand@@ 183
object 183
represen@@ 183
tual 183
ans@@ 182
atory 182
cies 182
critical 182
doctors 182
emb@@ 182
ging 182
hy 182
larger 182
para@@ 182
physi@@ 182
pit@@ 182
psycho@@ 182
refl@@ 182
ries 182
teaching 182
tex@@ 182
written 182
Those 181
allo@@ 181
dar@@ 181
doctor 181
mation 181
Ste@@ 180
current 180
hear@@ 180
iling 180
l-@@ 180
legs 180
patterns 180
philosoph@@ 180
prin@@ 180
thousand 180
tou@@ 180
aw@@ 179
ories 179
sequ@@ 179
spec@@ 179
speed 179
spir@@ 179
stu@@ 179
sy 179
two-@@ 179
vation 179
weight 179
zz@@ 179
Bi@@ 178
Bro@@ 178
Mon@@ 178
ash 178
becoming 178
connection 178
greater 178
s-@@ 178
soci@@ 178
sun@@ 178
treatment 178
Ex@@ 177
heal@@ 177
irs 177
ome 177
perspective 177
recognize 177
sky 177
upon 177
John 176
Western 176
actual 176
ane 176
ast 176
concept 176
ghts 176
gro@@ 176
illi@@ 176
inclu@@ 176
logi@@ 176
mom 176
multi@@ 176
older 176
sell 176
smaller 176
ssing 176
For@@ 175
Your 175
complicated 175
consi@@ 175
costs 175
lay 175
thy 175
train 175
African 174
argu@@ 174
babies 174
consider 174
funny 174
increase 174
massive 174
smo@@ 174
somehow 174
talks 174
visual 174
Ri@@ 173
To@@ 173
amp@@ 173
ath 173
clo@@ 173
demonstr@@ 173
foot 173
humanity 173
molecules 173
nur@@ 173
organization 173
range 173
sity 173
18 172
Vi@@ 172
beauty 172
cher 172
contribu@@ 172
ective 172
esti@@ 172
forth 172
mil@@ 172
wood 172
ads 171
anywhere 171
crimin@@ 171
cros@@ 171
dangerous 171
ef 171
financial 171
forest 171
oc@@ 171
ony 171
pot@@ 171
remarkable 171
shared 171
website 171
,@@ 170
bacteria 170
biology 170
coo@@ 170
dad 170
doub@@ 170
electricity 170
fantastic 170
levels 170
rights 170
simp@@ 170
thu@@ 170
Afghanistan 169
aling 169
arm 169
att@@ 169
cian 169
essentially 169
female 169
organizations 169
policy 169
practice 169
progress 169
record 169
shot 169
tici@@ 169
wit@@ 169
adap@@ 168
beings 168
direc@@ 168
dom@@ 168
evolved 168
fundamental 168
immediately 168
lands 168
mobile 168
mos@@ 168
plastic 168
ray 168
thern 168
tim@@ 168
whi@@ 168
70 167
cos@@ 167
function 167
genes 167
healthy 167
ill@@ 167
ils 167
lab@@ 167
loo@@ 167
plu@@ 167
protect 167
serious 167
song 167
speaking 167
surgery 167
track 167
ain 166
architecture 166
bility 166
decades 166
exist 166
ful@@ 166
int 166
le-@@ 166
path 166
perfor@@ 166
pull 166
related 166
wonder 166
after@@ 165
conven@@ 165
creativity 165
daughter 165
earlier 165
nh@@ 165
oh 165
ome@@ 165
party 165
poin@@ 165
police 165
stress 165
three-@@ 165
throughout 165
Another 164
ach 164
af@@ 164
appear 164
explo@@ 164
gotten 164
igh@@ 164
performance 164
suc@@ 164
television 164
touch 164
waiting 164
walked 164
zes 164
K 163
ana 163
archit@@ 163
bas@@ 163
date 163
direction 163
draw 163
genetic 163
om 163
physics 163
pr@@ 163
presen@@ 163
sustainable 163
tains 163
E 162
ank 162
cover 162
emotional 162
exper@@ 162
focused 162
following 162
gas 162
histor@@ 162
logists 162
sens@@ 162
thetic 162
to-@@ 162
tures 162
From 161
analy@@ 161
circu@@ 161
decision 161
final 161
ick@@ 161
please 161
posed 161
services 161
spea@@ 161
strange 161
City 160
Like 160
Lo@@ 160
Two 160
career 160
challenges 160
ering 160
fre@@ 160
phere 160
private 160
treat 160
you@@ 160
Au@@ 159
acting 159
autom@@ 159
ced 159
clearly 159
down@@ 159
free@@ 159
improve 159
military 159
pass 159
rap@@ 159
regu@@ 159
surprising 159
tered 159
understood 159
Tur@@ 158
chair 158
citizens 158
cold 158
invented 158
ish 158
price 158
slightly 158
tea@@ 158
therefore 158
transfor@@ 158
whe@@ 158
willing 158
00 157
90 157
Ac@@ 157
ances 157
bit@@ 157
blind 157
but@@ 157
carto@@ 157
creates 157
decide 157
dness 157
ening 157
environmental 157
ety 157
ght 157
lie 157
mit 157
recent 157
useful 157
&apos;@@ 156
complete 156
eling 156
entreprene@@ 156
helped 156
prof@@ 156
square 156
subject 156
was@@ 156
Any@@ 155
Ber@@ 155
birds 155
birth 155
cket 155
comfortable 155
dist@@ 155
driving 155
flow 155
fro@@ 155
ger@@ 155
head@@ 155
himself 155
ky 155
lating 155
medicine 155
obser@@ 155
obvious 155
print 155
spending 155
tap@@ 155
thro@@ 155
weren 155
Lu@@ 154
arti@@ 154
dest 154
fit 154
instance 154
lo 154
nation 154
ple@@ 154
sle@@ 154
summer 154
task 154
Some@@ 153
experiments 153
hol@@ 153
international 153
nuclear 153
person@@ 153
pp@@ 153
prison 153
ration 153
rely 153
sat 153
tured 153
ush 153
values 153
virus 153
198@@ 152
Ta@@ 152
activi@@ 152
coffee 152
destro@@ 152
dying 152
foun@@ 152
hon@@ 152
near 152
oni@@ 152
recogni@@ 152
unique 152
His 151
Is@@ 151
P 151
directly 151
event 151
intelligence 151
ority 151
secret 151
sharing 151
slide 151
ten 151
tivity 151
vel@@ 151
whose 151
$ 150
choices 150
connec@@ 150
differences 150
enh@@ 150
except 150
meeting 150
networks 150
ology 150
paid 150
popular 150
re-@@ 150
speech 150
states 150
wan@@ 150
yeah 150
Gi@@ 149
London 149
Many 149
answers 149
camp@@ 149
complexity 149
highly 149
inspired 149
kin@@ 149
motiv@@ 149
repor@@ 149
survive 149
teen@@ 149
tree 149
turning 149
acts 148
behavi@@ 148
dom 148
hel@@ 148
stars 148
stro@@ 148
temperature 148
various 148
yst@@ 148
Facebook 147
Ki@@ 147
ars 147
boys 147
capacity 147
contr@@ 147
diagnos@@ 147
diversity 147
forget 147
ger 147
gl@@ 147
identity 147
mal 147
meters 147
ouse 147
reas@@ 147
reti@@ 147
sch@@ 147
stance 147
station 147
stream 147
terrible 147
Middle 146
acked 146
ast@@ 146
causes 146
dan@@ 146
dang@@ 146
dog 146
floor 146
male 146
members 146
mes@@ 146
mming 146
prepar@@ 146
published 146
sol@@ 146
spaces 146
0-@@ 145
Ho@@ 145
bits 145
brings 145
central 145
clean 145
fal@@ 145
ffi@@ 145
fir@@ 145
gging 145
instru@@ 145
lity 145
net 145
noticed 145
produced 145
round 145
trial 145
Ab@@ 144
Har@@ 144
War 144
asing 144
chemical 144
flying 144
glass 144
grade 144
greatest 144
held 144
istic 144
radio 144
slow 144
work@@ 144
Isla@@ 143
Pr@@ 143
Rus@@ 143
afraid 143
ahead 143
artists 143
bone 143
conclu@@ 143
etc 143
fol@@ 143
fron@@ 143
leadership 143
pes 143
photograph 143
purpose 143
saving 143
scar@@ 143
scientist 143
sible 143
tel@@ 143
Dr. 142
bon@@ 142
bread 142
decade 142
dence 142
diseases 142
era 142
galax@@ 142
illu@@ 142
ites 142
missing 142
nar@@ 142
passion 142
psy@@ 142
push 142
quar@@ 142
rema@@ 142
shi@@ 142
sor@@ 142
streets 142
worst 142
14 141
Mc@@ 141
aff@@ 141
appear@@ 141
apped 141
bel@@ 141
communicate 141
crow@@ 141
dollar 141
figu@@ 141
fying 141
jec@@ 141
law@@ 141
liber@@ 141
liter@@ 141
lying 141
sides 141
xed 141
10@@ 140
California 140
H 140
Instead 140
ale 140
are@@ 140
bees 140
concer@@ 140
corpor@@ 140
explore 140
infor@@ 140
mates 140
possibly 140
rit@@ 140
shel@@ 140
tations 140
term 140
twice 140
Iraq 139
achiev@@ 139
bla@@ 139
closer 139
compon@@ 139
custom@@ 139
nic@@ 139
occu@@ 139
pair 139
part@@ 139
passed 139
rep@@ 139
stick 139
13 138
En@@ 138
Think 138
core 138
eth@@ 138
experiences 138
extra 138
gras@@ 138
gri@@ 138
hum@@ 138
hun@@ 138
lets 138
mal@@ 138
mb 138
ow 138
phones 138
real@@ 138
stopped 138
swi@@ 138
tent 138
trouble 138
16 137
aid 137
basis 137
conference 137
devices 137
drop 137
fav@@ 137
inh@@ 137
lau@@ 137
moments 137
necessary 137
run@@ 137
some@@ 137
spi@@ 137
vote 137
Chris 136
Ti@@ 136
bru@@ 136
cour@@ 136
initi@@ 136
low-@@ 136
quick 136
set@@ 136
sexual 136
style 136
swee@@ 136
L 135
Take 135
below 135
bing 135
commit@@ 135
communication 135
corruption 135
explor@@ 135
forces 135
join 135
meter 135
mostly 135
opportunities 135
opposite 135
ought 135
pass@@ 135
programs 135
repe@@ 135
spo@@ 135
standard 135
stinc@@ 135
surroun@@ 135
text 135
xes 135
197@@ 134
300 134
Jo@@ 134
bought 134
bringing 134
capit@@ 134
cle 134
consciousness 134
dents 134
expec@@ 134
gg@@ 134
institutions 134
journ@@ 134
kets 134
oes 134
oth 134
reve@@ 134
significant 134
st-@@ 134
straight 134
supply 134
1.@@ 133
AIDS 133
Ha@@ 133
amp 133
asks 133
autism 133
collap@@ 133
colleagues 133
effort 133
fli@@ 133
justice 133
knowing 133
lack 133
majority 133
nel 133
played 133
rev@@ 133
sand 133
studying 133
suit 133
tively 133
traffic 133
Fin@@ 132
accoun@@ 132
atch 132
ax@@ 132
deser@@ 132
ests 132
ght@@ 132
hearing 132
inno@@ 132
member 132
ours 132
reduce 132
stand@@ 132
structures 132
trade 132
Gu@@ 131
ambi@@ 131
apart 131
by@@ 131
cycle 131
degrees 131
feels 131
gate 131
measu@@ 131
molecule 131
puzz@@ 131
rooms 131
sul@@ 131
web 131
worl@@ 131
200@@ 130
Actually 130
Audience 130
a-@@ 130
ble@@ 130
care@@ 130
carry 130
entirely 130
feed 130
lucky 130
od 130
oral 130
ore@@ 130
original 130
recei@@ 130
return 130
rule 130
scre@@ 130
shift 130
wea@@ 130
zero 130
Indian 129
Pa@@ 129
address 129
civil 129
descri@@ 129
determin@@ 129
failure 129
inspi@@ 129
interact 129
kee@@ 129
nearly 129
oms 129
rain 129
read@@ 129
religion 129
Ge@@ 128
National 128
Sa@@ 128
agree 128
ant@@ 128
cau@@ 128
gradu@@ 128
gun 128
human@@ 128
leading 128
mothers 128
photo 128
suppor@@ 128
tissue 128
transp@@ 128
urban 128
workers 128
yl@@ 128
alist 127
alter@@ 127
although 127
bed@@ 127
broken 127
condition 127
ction 127
dit@@ 127
engine 127
glob@@ 127
graph 127
helping 127
lite 127
pers 127
ty@@ 127
vely 127
Bar@@ 126
Great 126
However 126
Qu@@ 126
U.K. 126
apply 126
cience 126
conser@@ 126
construc@@ 126
differently 126
easily 126
end@@ 126
ff 126
husband 126
importantly 126
ination 126
invol@@ 126
lesson 126
nutri@@ 126
ols 126
pressed 126
responsible 126
stem 126
usual 126
acks 125
alization 125
arian 125
asp@@ 125
believ@@ 125
benefits 125
crime 125
edge 125
ema@@ 125
emotions 125
flu 125
fo@@ 125
ina 125
matters 125
operation 125
organi@@ 125
shes 125
vative 125
wear 125
worry 125
British 124
Have 124
Hey 124
Or@@ 124
Pri@@ 124
ama@@ 124
benefit 124
cians 124
educ@@ 124
enormous 124
esting 124
ght-@@ 124
partment 124
proper@@ 124
relationships 124
sic 124
smell 124
star 124
agri@@ 123
anyway 123
belief 123
bran@@ 123
describe 123
fair 123
ills 123
imagination 123
method 123
occur@@ 123
ror 123
rup@@ 123
statistics 123
tail 123
throw 123
wisdom 123
2,000 122
Da@@ 122
accep@@ 122
achieve 122
apers 122
attack 122
check 122
dea@@ 122
distance 122
domin@@ 122
eep 122
ener@@ 122
engage 122
eu@@ 122
fix 122
high@@ 122
ini@@ 122
inju@@ 122
mam@@ 122
ort@@ 122
oxygen 122
prob@@ 122
received 122
shoes 122
suffering 122
total 122
wr@@ 122
French 121
Sha@@ 121
anced 121
ancient 121
and-@@ 121
ang 121
appro@@ 121
comm@@ 121
deci@@ 121
facts 121
finished 121
gene@@ 121
in-@@ 121
load 121
males 121
mor 121
nee@@ 121
painting 121
photos 121
reco@@ 121
terri@@ 121
Again 120
Bill 120
Japan 120
Mr. 120
Musli@@ 120
Once 120
ai@@ 120
atmosphere 120
creation 120
exten@@ 120
fashion 120
foreign 120
forever 120
governments 120
heat 120
hot@@ 120
neighb@@ 120
pressure 120
shares 120
sian 120
stern 120
trop@@ 120
users 120
yer 120
zen 120
Big 119
agen@@ 119
argument 119
corner 119
deeply 119
due 119
edu@@ 119
home@@ 119
immu@@ 119
infrastructure 119
ink 119
interaction 119
landscape 119
laws 119
not@@ 119
note 119
respond 119
responsibility 119
shouldn 119
thre@@ 119
tionally 119
vacc@@ 119
yers 119
3D 118
Brazil 118
ai 118
cloud 118
discover 118
dreams 118
ecu@@ 118
events 118
fab@@ 118
jud@@ 118
mate 118
mel@@ 118
native 118
nec@@ 118
ney 118
nit@@ 118
none 118
ous@@ 118
reli@@ 118
rol@@ 118
strategy 118
Gre@@ 117
Pe@@ 117
Sometimes 117
Sp@@ 117
alism 117
coura@@ 117
definition 117
email 117
ened 117
fail@@ 117
fighting 117
gely 117
hom@@ 117
keeping 117
limited 117
loss 117
necessarily 117
perfectly 117
profit 117
rid 117
sis 117
ste 117
vast 117
visit 117
10,000 116
An 116
Asia 116
European 116
Would 116
balance 116
break@@ 116
compared 116
conscious 116
dinner 116
discovery 116
effects 116
equal 116
failed 116
holding 116
houses 116
integr@@ 116
leg@@ 116
len@@ 116
obe@@ 116
quote 116
raised 116
seemed 116
tric 116
vege@@ 116
vering 116
vice 116
17 115
24 115
Did 115
Go 115
afford 115
beat 115
breast 115
conduc@@ 115
creatures 115
dig@@ 115
ems 115
fascinating 115
fee@@ 115
frequ@@ 115
gay 115
glo@@ 115
lic 115
managed 115
markets 115
oss 115
park 115
ped 115
photograp@@ 115
primar@@ 115
researchers 115
rock 115
stuck 115
well-@@ 115
window 115
1,000 114
1,@@ 114
X@@ 114
affect 114
alo@@ 114
aries 114
bank 114
calcul@@ 114
cer 114
character 114
colors 114
easier 114
fairly 114
ference 114
figured 114
inci@@ 114
insects 114
invisible 114
moves 114
respect 114
typical 114
GDP 113
Go@@ 113
adults 113
agers 113
alize 113
bli@@ 113
capital 113
classroom 113
dimensional 113
drawing 113
fuel 113
graph@@ 113
grown 113
mics 113
moun@@ 113
negative 113
ol 113
protein 113
random 113
rational 113
reali@@ 113
report 113
sac@@ 113
sely 113
shop 113
titude 113
versus 113
vic@@ 113
vit@@ 113
voices 113
volunte@@ 113
Arab 112
acu@@ 112
alu@@ 112
attemp@@ 112
biological 112
celebr@@ 112
deliver 112
ement 112
equipment 112
extreme 112
fication 112
filled 112
gue 112
hate 112
industrial 112
invited 112
married 112
mouse 112
names 112
nd 112
operate 112
pil@@ 112
previ@@ 112
sight 112
sin@@ 112
soli@@ 112
thinks 112
tract 112
ve-@@ 112
Over 111
bridge 111
capable 111
collective 111
construction 111
desire 111
emotion 111
experts 111
faci@@ 111
gla@@ 111
ian 111
indu@@ 111
itch@@ 111
ket@@ 111
languages 111
leads 111
legal 111
letter 111
memb@@ 111
mountain 111
offer 111
possibility 111
shif@@ 111
stop@@ 111
tech 111
15@@ 110
Inter@@ 110
Very 110
Wal@@ 110
apping 110
argue 110
conta@@ 110
detail 110
dy@@ 110
ense 110
hos@@ 110
ise 110
nat@@ 110
planets 110
resp@@ 110
sick 110
sites 110
studied 110
sudden 110
supp@@ 110
survi@@ 110
transform 110
tremendous 110
Fe@@ 109
Japanese 109
Mars 109
ah 109
background 109
damage 109
define 109
efficient 109
genome 109
giant 109
gic 109
kil@@ 109
land@@ 109
legi@@ 109
liked 109
mas@@ 109
mea@@ 109
mir@@ 109
mps 109
notion 109
opini@@ 109
planning 109
ras@@ 109
requi@@ 109
smar@@ 109
steps 109
target 109
thri@@ 109
v 109
vis@@ 109
wearing 109
Iran 108
ash@@ 108
brother 108
collect 108
daily 108
despite 108
di 108
electrical 108
enjoy 108
ential 108
farmers 108
incenti@@ 108
ized 108
kid@@ 108
kno@@ 108
mented 108
ole 108
presents 108
profound 108
section 108
tle@@ 108
unch 108
university 108
vey 108
vot@@ 108
Egy@@ 107
Ja@@ 107
account 107
billions 107
calcu@@ 107
campaign 107
charge 107
compe@@ 107
degree 107
depen@@ 107
dering 107
digi@@ 107
dry 107
experienced 107
fing@@ 107
fold 107
illustr@@ 107
influence 107
ok 107
opened 107
organic 107
pal@@ 107
pop@@ 107
ried 107
sla@@ 107
state@@ 107
vaccine 107
watched 107
Everybody 106
Hi@@ 106
J 106
Q@@ 106
San 106
activ@@ 106
appreci@@ 106
asse@@ 106
calls 106
catch 106
cin@@ 106
compar@@ 106
fill 106
gain 106
hair 106
hidden 106
institu@@ 106
investment 106
ior 106
itable 106
joy 106
leader 106
magazine 106
neighborhood 106
scan@@ 106
sector 106
sister 106
surprise 106
trained 106
transpor@@ 106
venu@@ 106
views 106
wee@@ 106
5,000 105
Einstein 105
Israel 105
Mexico 105
Ni@@ 105
Washington 105
Women 105
avoid 105
cles 105
designer 105
experimen@@ 105
feedback 105
generate 105
labor@@ 105
lunch 105
meat 105
mouth 105
nose 105
paint 105
pollu@@ 105
produc@@ 105
prototy@@ 105
puts 105
sensi@@ 105
sorry 105
stone 105
surprised 105
th-@@ 105
univer@@ 105
ves@@ 105
yellow 105
400 104
See 104
ables 104
aly@@ 104
anger 104
begins 104
believed 104
businesses 104
cating 104
characters 104
childhood 104
concerned 104
dows 104
electr@@ 104
electron@@ 104
everyday 104
evol@@ 104
factory 104
flight 104
followed 104
helps 104
interven@@ 104
investi@@ 104
leaving 104
losing 104
neuro@@ 104
obse@@ 104
operating 104
ote 104
pel@@ 104
peri@@ 104
quit@@ 104
relevant 104
slo@@ 104
tage 104
thin 104
tom@@ 104
tre@@ 104
urs 104
van 104
alities 103
appeared 103
challeng@@ 103
cide 103
cip@@ 103
circum@@ 103
depression 103
described 103
essential 103
expression 103
flies 103
gal@@ 103
ha 103
horri@@ 103
increasingly 103
link 103
long@@ 103
milli@@ 103
musi@@ 103
neuros@@ 103
pher@@ 103
predict 103
profes@@ 103
reci@@ 103
shapes 103
spot 103
struggle 103
survival 103
ual 103
weapons 103
wil@@ 103
-up 102
Australia 102
Each 102
George 102
Kenya 102
advantage 102
anda 102
anthro@@ 102
assemb@@ 102
associated 102
atta@@ 102
block 102
brand 102
brilliant 102
constantly 102
distribution 102
enter 102
eth 102
fic 102
fire@@ 102
ghten@@ 102
interpre@@ 102
labor 102
mark 102
nity 102
ological 102
oph@@ 102
phenomenon 102
posi@@ 102
robo@@ 102
sci@@ 102
sculp@@ 102
sold 102
stru@@ 102
susp@@ 102
ultimately 102
universal 102
unk 102
wise 102
20th 101
More 101
On@@ 101
Thanks 101
Twitter 101
accomp@@ 101
acking 101
aded 101
adop@@ 101
airplane 101
angle 101
breath 101
chemistry 101
competition 101
cortex 101
count 101
deter@@ 101
eli@@ 101
ham@@ 101
harder 101
holes 101
honest 101
ily 101
inven@@ 101
killing 101
less@@ 101
new@@ 101
ods 101
proud 101
rural 101
sear@@ 101
separ@@ 101
separate 101
sugar 101
tons 101
tough 101
treated 101
velo@@ 101
2008 100
Charles 100
acc@@ 100
antly 100
base 100
bus 100
card 100
cheap 100
contin@@ 100
del@@ 100
dow 100
elements 100
homes 100
ize 100
lif@@ 100
mortality 100
museum 100
normally 100
oul@@ 100
power@@ 100
ros@@ 100
san@@ 100
satel@@ 100
scr@@ 100
spirit 100
threat 100
tually 100
Cam@@ 99
School 99
acceler@@ 99
arely 99
clock 99
compare 99
confi@@ 99
demand 99
engineers 99
entially 99
facing 99
gift 99
gy 99
highest 99
instruc@@ 99
intro@@ 99
leaves 99
ler@@ 99
monit@@ 99
optimi@@ 99
organized 99
organs 99
perception 99
rais@@ 99
solved 99
stood 99
sugg@@ 99
tural 99
via 99
violent 99
wide 99
wild 99
England 98
boun@@ 98
collection 98
communi@@ 98
confu@@ 98
dat@@ 98
defin@@ 98
direct 98
distribu@@ 98
dots 98
driven 98
ech@@ 98
election 98
environ@@ 98
hasn 98
hur@@ 98
ind 98
letters 98
moon 98
noise 98
offer@@ 98
ops 98
ordinary 98
percei@@ 98
sad 98
scen@@ 98
spor@@ 98
stery 98
techno@@ 98
tioning 98
ager 97
arms 97
astron@@ 97
bia 97
clin@@ 97
cognitive 97
commercial 97
covered 97
cultures 97
currently 97
duction 97
earth 97
economics 97
f-@@ 97
kilome@@ 97
lant 97
ond 97
opening 97
pper 97
property 97
soldiers 97
swim 97
tens 97
therapy 97
tun@@ 97
vements 97
weird 97
Brit@@ 96
Canada 96
Could 96
Coun@@ 96
awesome 96
broad@@ 96
commu@@ 96
convin@@ 96
destruc@@ 96
dimensions 96
empo@@ 96
faith 96
grap@@ 96
influ@@ 96
jump 96
micros@@ 96
musc@@ 96
paying 96
plus 96
regre@@ 96
rest@@ 96
safety 96
spoke 96
strength 96
transpar@@ 96
trav@@ 96
tune 96
valuable 96
wal@@ 96
west 96
worldwide 96
Du@@ 95
Ru@@ 95
Second 95
Wor@@ 95
analysis 95
artificial 95
classi@@ 95
clinical 95
concep@@ 95
consumption 95
dia 95
dish 95
eel 95
employees 95
ereas 95
fell 95
fundamen@@ 95
gene 95
innov@@ 95
invest 95
kne@@ 95
lers 95
lit 95
marriage 95
mas 95
mista@@ 95
multiple 95
organisms 95
osity 95
pages 95
pay@@ 95
plane 95
radical 95
recy@@ 95
river 95
sentence 95
volu@@ 95
walls 95
Do@@ 94
Everything 94
Hel@@ 94
Jan@@ 94
MIT 94
Paul 94
Yet 94
aged 94
article 94
bubble 94
caused 94
circle 94
contact 94
details 94
dings 94
dle 94
eet 94
fiction 94
gap 94
gather@@ 94
gency 94
generations 94
gran@@ 94
ham 94
ign@@ 94
intellec@@ 94
ject 94
laugh@@ 94
leg 94
migr@@ 94
omy 94
ordin@@ 94
otherwise 94
penguins 94
secre@@ 94
seriously 94
slowly 94
sting 94
stitu@@ 94
strate@@ 94
tar 94
theater 94
tionary 94
videos 94
wake 94
wealth 94
wered 94
za 94
45 93
Good 93
Talk 93
Times 93
categ@@ 93
controlled 93
curious 93
discipl@@ 93
exhi@@ 93
ffer 93
fur@@ 93
gged 93
graduate 93
hypothe@@ 93
identify 93
infected 93
ion 93
lated 93
malaria 93
meaning@@ 93
mentary 93
mom@@ 93
passionate 93
photographs 93
preven@@ 93
prove 93
satis@@ 93
scene 93
ski@@ 93
soil 93
tomorrow 93
tric@@ 93
wondering 93
Ad@@ 92
C. 92
Does 92
Their 92
Three 92
acade@@ 92
bar 92
bat@@ 92
chic@@ 92
connections 92
defined 92
extin@@ 92
forced 92
fortunately 92
fru@@ 92
frustr@@ 92
govern@@ 92
interface 92
location 92
maker 92
matic 92
musical 92
negoti@@ 92
orig@@ 92
pra@@ 92
religious 92
ress 92
solving 92
tele@@ 92
tral 92
urch 92
virtual 92
While 91
according 91
adverti@@ 91
awful 91
berg 91
blu@@ 91
calling 91
character@@ 91
clou@@ 91
consequences 91
considered 91
empty 91
ep 91
exc@@ 91
fewer 91
grandmother 91
illness 91
inner 91
itation 91
launched 91
molecular 91
partner 91
pounds 91
pregn@@ 91
producing 91
remote 91
resource 91
ride 91
samp@@ 91
scri@@ 91
signed 91
specifically 91
spring 91
stitute 91
suring 91
sus 91
vement 91
whom 91
21@@ 90
Ca@@ 90
U.@@ 90
abi@@ 90
acted 90
approa@@ 90
camp 90
che 90
confidence 90
democratic 90
diet 90
dogs 90
equivalent 90
eria 90
expected 90
finish 90
forests 90
four@@ 90
geous 90
heads 90
ins@@ 90
intui@@ 90
nan@@ 90
open-@@ 90
ossi@@ 90
ough 90
picked 90
pleasure 90
professional 90
rement 90
represent 90
sending 90
suggests 90
testing 90
tles 90
tra 90
trick 90
unfortunately 90
vehicle 90
Can@@ 89
GPS 89
Mal@@ 89
bili@@ 89
chain 89
closed 89
cont@@ 89
copy 89
deeper 89
dio@@ 89
driver 89
enjo@@ 89
er-@@ 89
exist@@ 89
graphic 89
hi 89
hopefully 89
instal@@ 89
magi@@ 89
match 89
notes 89
partici@@ 89
pollen 89
prevent 89
productive 89
professor 89
psychology 89
quest 89
saved 89
sharks 89
signal 89
tables 89
techni@@ 89
tting 89
ty-@@ 89
vered 89
vity 89
Ken@@ 88
Street 88
Vo@@ 88
affected 88
apart@@ 88
auti@@ 88
battery 88
blin@@ 88
blocks 88
cere@@ 88
cious 88
convinced 88
de-@@ 88
debate 88
definitely 88
designing 88
empathy 88
engineer 88
fail 88
fat 88
gender 88
hadn 88
lities 88
lum 88
manage 88
mers 88
metal 88
metho@@ 88
mod@@ 88
narrative 88
ony@@ 88
placed 88
poe@@ 88
politicians 88
printing 88
roll 88
scal@@ 88
sco@@ 88
sons 88
sources 88
spe@@ 88
surge@@ 88
symbo@@ 88
syst@@ 88
teles@@ 88
thir@@ 88
threat@@ 88
tum 88
warming 88
whenever 88
196@@ 87
Come 87
Please 87
Scot@@ 87
Uni@@ 87
accident 87
appar@@ 87
ca 87
chec@@ 87
concentr@@ 87
contra@@ 87
credit 87
cutting 87
duces 87
gentlemen 87
importance 87
inal 87
ings 87
intelligent 87
invention 87
makers 87
mid@@ 87
nations 87
on-@@ 87
president 87
promise 87
rain@@ 87
reaction 87
released 87
requires 87
res@@ 87
sage 87
sages 87
shark 87
six@@ 87
stances 87
switch 87
technical 87
underneath 87
unexpected 87
unless 87
victims 87
writer 87
2010 86
Cong@@ 86
abilities 86
absolute 86
arrived 86
atures 86
caught 86
earth@@ 86
ela 86
epidemic 86
feelings 86
foundation 86
heavy 86
invent 86
itting 86
libr@@ 86
liver 86
motion 86
organ 86
player 86
regular 86
susta@@ 86
weather 86
wine 86
3,000 85
Every@@ 85
Fri@@ 85
accu@@ 85
addition 85
adult 85
aper 85
arts 85
athle@@ 85
bird 85
birthday 85
civili@@ 85
counter@@ 85
cure 85
dynamic 85
effectively 85
embar@@ 85
fourth 85
fran@@ 85
gin 85
hospitals 85
ingredi@@ 85
kly 85
lege 85
lifetime 85
lock 85
los@@ 85
mistakes 85
mur@@ 85
olutionary 85
oned 85
physici@@ 85
players 85
rhy@@ 85
selling 85
ships 85
sically 85
staff 85
stea@@ 85
thoughts 85
user 85
150 84
Adam 84
Germany 84
Harvard 84
Pla@@ 84
Since 84
Thomas 84
ado@@ 84
algorithms 84
amounts 84
analo@@ 84
appe@@ 84
attrac@@ 84
atur@@ 84
buying 84
cers 84
chu@@ 84
coal 84
compos@@ 84
conflic@@ 84
een 84
elling 84
emissions 84
encoura@@ 84
exact 84
existing 84
grou@@ 84
horse 84
hou@@ 84
hurt 84
introduce 84
ints 84
master 84
mee@@ 84
nervous 84
newspaper 84
pants 84
principle 84
release 84
require 84
setting 84
status 84
strugg@@ 84
topic 84
toward 84
tracking 84
um@@ 84
une@@ 84
wo@@ 84
worried 84
Jos@@ 83
Man 83
abstr@@ 83
adly 83
anz@@ 83
ater 83
bene@@ 83
budget 83
ception 83
civilization 83
designers 83
disco@@ 83
double 83
drink 83
east 83
effici@@ 83
emerging 83
engaged 83
evil 83
exercise 83
fs 83
grate@@ 83
happi@@ 83
ignor@@ 83
ither 83
ka 83
layer 83
long-term 83
management 83
mony 83
neu@@ 83
novel 83
personally 83
post-@@ 83
rapid@@ 83
resident 83
reward 83
seat 83
spectrum 83
stronger 83
struc@@ 83
sty 83
transformation 83
trip 83
val 83
visu@@ 83
wave 83
waves 83
2.@@ 82
CO2 82
Christi@@ 82
Life 82
Mat@@ 82
Wa@@ 82
X-@@ 82
accept 82
ancy 82
appropriate 82
arre@@ 82
cards 82
cell@@ 82
cir@@ 82
click 82
cross 82
ecosystem 82
eleph@@ 82
estab@@ 82
esterday 82
falling 82
folks 82
gram 82
independent 82
island 82
jects 82
lessons 82
liquid 82
marketing 82
memories 82
mention 82
metaphor 82
miss 82
mix 82
mulation 82
near@@ 82
oce@@ 82
pack@@ 82
program@@ 82
relatively 82
remin@@ 82
rescu@@ 82
resear@@ 82
restaurant 82
sations 82
sively 82
soph@@ 82
techniques 82
vulnerable 82
35 81
Center 81
Pi@@ 81
San@@ 81
Sun 81
YouTube 81
actor 81
added 81
alists 81
arm@@ 81
arri@@ 81
bly 81
comple@@ 81
correct 81
dian 81
dir@@ 81
exists 81
false 81
fascin@@ 81
fields 81
formed 81
gies 81
goods 81
hell 81
introduced 81
lady 81
lat@@ 81
len 81
licen@@ 81
lish 81
percen@@ 81
portra@@ 81
possibilities 81
practical 81
pre-@@ 81
processes 81
quake 81
risks 81
sets 81
signals 81
silence 81
studio 81
stupid 81
terr@@ 81
tradition 81
trials 81
tter 81
zon@@ 81
75 80
Al 80
James 80
Lin@@ 80
Michael 80
Sweden 80
antic 80
author 80
awareness 80
carefully 80
carrying 80
chemicals 80
const@@ 80
dered 80
dolph@@ 80
error 80
express 80
factor 80
farm 80
fr@@ 80
gation 80
gor@@ 80
hack@@ 80
impli@@ 80
iness 80
now@@ 80
occa@@ 80
particles 80
peak 80
platform 80
principles 80
proce@@ 80
prote@@ 80
protection 80
roughly 80
sation 80
success@@ 80
tabo@@ 80
tox@@ 80
typically 80
va 80
wings 80
woo@@ 80
Bal@@ 79
Cha@@ 79
Chi@@ 79
Haiti 79
Last 79
N 79
Stu@@ 79
acci@@ 79
anic 79
ason 79
bear 79
boat 79
depends 79
desig@@ 79
dramatic 79
dru@@ 79
electric 79
grandfather 79
han@@ 79
hydrogen 79
inary 79
ition 79
logic 79
mentioned 79
mirac@@ 79
nets 79
ng-@@ 79
phot@@ 79
play@@ 79
pop 79
popu@@ 79
refuge@@ 79
rot@@ 79
sand@@ 79
sees 79
short@@ 79
singing 79
situ@@ 79
story@@ 79
stric@@ 79
the-@@ 79
till 79
tribu@@ 79
ur 79
wars 79
As@@ 78
Day 78
Gir@@ 78
II 78
Ros@@ 78
Tal@@ 78
Wow 78
accurate 78
announ@@ 78
arily 78
battle 78
bike 78
breaking 78
burn 78
control@@ 78
correc@@ 78
dio 78
encourage 78
grid 78
honor 78
lin 78
loy@@ 78
memor@@ 78
multi-@@ 78
nership 78
nge 78
participate 78
plans 78
rare 78
rates 78
remain 78
ris@@ 78
senses 78
stant 78
string 78
tainment 78
thin@@ 78
tili@@ 78
well-being 78
ya 78
year-old 78
0 77
50,000 77
N. 77
PM 77
Web 77
bb@@ 77
bright 77
cs 77
encoun@@ 77
exi@@ 77
flower 77
foo@@ 77
invest@@ 77
ket 77
navi@@ 77
root 77
smile 77
stable 77
unit 77
vil 77
wer@@ 77
wering 77
195@@ 76
Bab@@ 76
Fr@@ 76
Los 76
Pre@@ 76
attacks 76
chest 76
ets 76
file 76
ggest 76
ggs 76
lob@@ 76
lung 76
manufacturing 76
ound@@ 76
outh 76
overwhel@@ 76
pest 76
privi@@ 76
sample 76
scared 76
stati@@ 76
stics 76
strict 76
temporary 76
walks 76
wever 76
600 75
Art 75
Bank 75
ED 75
Fran@@ 75
Gul@@ 75
anks 75
ath@@ 75
atu@@ 75
bet 75
dic 75
hip 75
jump@@ 75
nging 75
omes 75
osaur@@ 75
pet 75
stin@@ 75
surpri@@ 75
tile 75
ug@@ 75
vere 75
zi@@ 75
- 74
Cu@@ 74
Demo@@ 74
Gr@@ 74
Hol@@ 74
Robert 74
associ@@ 74
camer@@ 74
comfor@@ 74
concrete 74
esp@@ 74
fellow 74
gen 74
ison 74
ounds 74
ssi@@ 74
sustain@@ 74
symptom@@ 74
tat@@ 74
tries 74
villa@@ 74
visible 74
wondered 74
2000 73
Ital@@ 73
Obama 73
Richard 73
Sy@@ 73
agement 73
arch@@ 73
cas@@ 73
diag@@ 73
gam@@ 73
ghting 73
hood 73
lec@@ 73
mad 73
processing 73
tery 73
therap@@ 73
tory 73
ural 73
virtu@@ 73
ware 73
zer@@ 73
100,000 72
Bra@@ 72
Christ@@ 72
Dan 72
F 72
Gal@@ 72
Ser@@ 72
ade 72
deb@@ 72
fe 72
indic@@ 72
une 72
voc@@ 72
vol@@ 72
2007 71
Her@@ 71
Man@@ 71
ama 71
border 71
cape 71
certain@@ 71
chocol@@ 71
competi@@ 71
duced 71
ext 71
ghter 71
haps 71
kh@@ 71
movi@@ 71
photograph@@ 71
shaped 71
sour@@ 71
sym@@ 71
tain@@ 71
tested 71
00@@ 70
17@@ 70
2009 70
Francisco 70
German 70
MRI 70
Mil@@ 70
NASA 70
Paris 70
Sahar@@ 70
Tu@@ 70
atten@@ 70
craft 70
gy@@ 70
practi@@ 70
progre@@ 70
sin 70
tica 70
tie 70
transition 70
web@@ 70
Bur@@ 69
Heal@@ 69
Nu@@ 69
Pakistan 69
aces 69
eal@@ 69
enced 69
illegal 69
lig@@ 69
net@@ 69
singly 69
sup@@ 69
thou@@ 69
vehic@@ 69
vulner@@ 69
writ@@ 69
.D. 68
16@@ 68
Den@@ 68
Derek 68
Juli@@ 68
Nigeria 68
Palesti@@ 68
ams 68
band 68
blog 68
cents 68
ere 68
glu@@ 68
hous@@ 68
iPhone 68
je@@ 68
loud 68
org@@ 68
process@@ 68
steel 68
stry 68
Ben@@ 67
Gra@@ 67
Pu@@ 67
Rob@@ 67
Sar@@ 67
Sun@@ 67
Tor@@ 67
Wikipedia 67
Willi@@ 67
Yor@@ 67
boo@@ 67
contro@@ 67
deta@@ 67
enly 67
fan 67
oom 67
p-@@ 67
ques@@ 67
sal 67
ti 67
treat@@ 67
verage 67
xide 67
yan 67
Free@@ 66
Isra@@ 66
Jer@@ 66
Martin 66
ame 66
bun@@ 66
dam@@ 66
fam@@ 66
illion 66
lap@@ 66
m-@@ 66
ngo@@ 66
refu@@ 66
religi@@ 66
seum 66
stock 66
year-@@ 66
Kh@@ 65
Mark 65
Nobel 65
SW 65
Steve 65
Vir@@ 65
bloo@@ 65
buil@@ 65
chip 65
fel@@ 65
fortun@@ 65
gan 65
ign 65
ire 65
lot@@ 65
mous 65
sing@@ 65
tiv@@ 65
underst@@ 65
Before 64
King 64
Latin 64
May 64
Pal@@ 64
Sim@@ 64
Swe@@ 64
Tri@@ 64
any@@ 64
art@@ 64
atest 64
crea@@ 64
ecture 64
follo@@ 64
hic 64
pose 64
prac@@ 64
scho@@ 64
sel 64
strea@@ 64
sually 64
21 63
Cal@@ 63
Cap@@ 63
Ci@@ 63
Manhattan 63
Pol@@ 63
ange 63
effor@@ 63
gos 63
list@@ 63
mail 63
organ@@ 63
secon@@ 63
ser 63
sey 63
shar@@ 63
tary 63
Cen@@ 62
Dis@@ 62
Ed@@ 62
Hal@@ 62
Higgs 62
Sch@@ 62
Smith 62
ald 62
ania 62
ario 62
ba 62
drew 62
ero@@ 62
mile 62
neighbor@@ 62
oxytocin 62
ry@@ 62
tan 62
titu@@ 62
14@@ 61
Alzheimer 61
Boston 61
Ga@@ 61
Joe 61
New@@ 61
PA 61
Tom 61
Wat@@ 61
bre@@ 61
clear@@ 61
co 61
curi@@ 61
cus 61
dau@@ 61
eets 61
ji@@ 61
priv@@ 61
sexu@@ 61
toilet 61
tube 61
2005 60
99 60
Angeles 60
Atlan@@ 60
Global 60
Mand@@ 60
State 60
V 60
ak 60
belie@@ 60
bi 60
dem@@ 60
ena 60
focu@@ 60
manu@@ 60
moder@@ 60
ool 60
weal@@ 60
12@@ 59
Afri@@ 59
hang 59
ky@@ 59
lear@@ 59
oundation 59
parti@@ 59
particip@@ 59
van@@ 59
vin@@ 59
viol@@ 59
22 58
95 58
Amazon 58
CA@@ 58
Darwin 58
Don@@ 58
Hi 58
Ka@@ 58
Mor@@ 58
U 58
ac 58
amine 58
anding 58
bacter@@ 58
bucks 58
citiz@@ 58
cratic 58
ere@@ 58
golf 58
ing@@ 58
manufac@@ 58
marke@@ 58
n-@@ 58
ota 58
ould 58
scan 58
xy 58
65 57
A. 57
Chicago 57
Congo 57
Cor@@ 57
Ke@@ 57
Olymp@@ 57
Ven@@ 57
bo 57
deed 57
difficul@@ 57
expl@@ 57
gger 57
insul@@ 57
m. 57
oty@@ 57
ric 57
sign@@ 57
tin 57
tioned 57
Apple 56
Bang 56
Eric 56
Mel@@ 56
Pen@@ 56
Peter 56
Ter@@ 56
acti@@ 56
develop@@ 56
dition 56
gn@@ 56
indepen@@ 56
laptop 56
lor 56
open@@ 56
tian 56
23 55
At@@ 55
Green@@ 55
John@@ 55
Mos@@ 55
accur@@ 55
nes@@ 55
origami 55
ou 55
phenomen@@ 55
piano 55
vy 55
2006 54
Am@@ 54
Carol@@ 54
Gabby 54
Gates 54
Lea@@ 54
Rom@@ 54
Sau@@ 54
Wil@@ 54
algorith@@ 54
chemi@@ 54
dan 54
ech 54
inch 54
ird 54
tradi@@ 54
40@@ 53
Br@@ 53
Del@@ 53
Jon@@ 53
Phili@@ 53
Rio 53
Shi@@ 53
Wol@@ 53
Zi@@ 53
clip 53
inte@@ 53
laser 53
Bon@@ 52
Dur@@ 52
El@@ 52
Lad@@ 52
Rwanda 52
Wall 52
addre@@ 52
ak@@ 52
ara@@ 52
ause 52
bert 52
dung 52
employ@@ 52
extre@@ 52
gir@@ 52
isms 52
kes@@ 52
ko 52
ze@@ 52
19 51
2004 51
Ben 51
Dar@@ 51
Ear@@ 51
Frank 51
Gen@@ 51
SA 51
Tes@@ 51
X 51
consci@@ 51
consequ@@ 51
dyna@@ 51
ectively 51
ee 51
ert 51
gol@@ 51
knowle@@ 51
lan 51
licon 51
long-@@ 51
ple 51
yn@@ 51
2003 50
2011 50
Cop@@ 50
He@@ 50
Henry 50
Mis@@ 50
My@@ 50
Stanford 50
Tony 50
ala@@ 50
conf@@ 50
ellow 50
gin@@ 50
lions 50
swit@@ 50
tely 50
tissu@@ 50
transi@@ 50
27 49
33 49
Star@@ 49
anim@@ 49
cei@@ 49
centi@@ 49
colleagu@@ 49
laun@@ 49
trou@@ 49
Cambridge 48
We@@ 48
Y 48
safe@@ 48
é@@ 48
Gol@@ 47
Korea 47
condi@@ 47
tin@@ 47
ED@@ 46
Lib@@ 46
compas@@ 46
estic 46
q@@ 46
vel 46
13@@ 45
tim 44
Taliban 43
iP@@ 43
W 38
Kore@@ 36
+ 32
é 32
Q 27
á@@ 21
… 20
í@@ 19
Z 18
vul@@ 16
= 15
ç@@ 15
ó@@ 12
– 12
@ 11
j 11
è@@ 10
ü@@ 10
ö@@ 9
% 8
ã@@ 8
ä@@ 7
# 6
) 5
á 5
ï@@ 5
ø@@ 5
อ@@ 4
q 3
 3
 3
à 3
â 3
ê@@ 3
́ 3
( 2
_ 2
£ 2
Á@@ 2
É@@ 2
è 2
ë 2
ñ@@ 2
ā@@ 2
ร 2
่ 2
* 1
¡ 1
Å@@ 1
â@@ 1
ë@@ 1
ø 1
Ă@@ 1
Č@@ 1
ē 1
Ť 1
ย 1
ย@@ 1
€ 1
你@@ 1
葱 1
送@@ 1
madeupword0000 0
madeupword0001 0
madeupword0002 0
madeupword0003 0
